{
  "version": "1.0",
  "truncation": null,
  "padding": null,
  "added_tokens": [
    {
      "id": 0,
      "content": "<|pad|>",
      "single_word": false,
      "lstrip": false,
      "rstrip": false,
      "normalized": false,
      "special": true
    },
    {
      "id": 1,
      "content": "<|endoftext|>",
      "single_word": false,
      "lstrip": false,
      "rstrip": false,
      "normalized": false,
      "special": true
    },
    {
      "id": 2,
      "content": "<|user|>",
      "single_word": false,
      "lstrip": false,
      "rstrip": false,
      "normalized": false,
      "special": true
    },
    {
      "id": 3,
      "content": "<|assistant|>",
      "single_word": false,
      "lstrip": false,
      "rstrip": false,
      "normalized": false,
      "special": true
    },
    {
      "id": 4,
      "content": "<|context|>",
      "single_word": false,
      "lstrip": false,
      "rstrip": false,
      "normalized": false,
      "special": true
    }
  ],
  "normalizer": null,
  "pre_tokenizer": {
    "type": "Sequence",
    "pretokenizers": [
      {
        "type": "Digits",
        "individual_digits": true
      },
      {
        "type": "ByteLevel",
        "add_prefix_space": false,
        "trim_offsets": true,
        "use_regex": true
      }
    ]
  },
  "post_processor": {
    "type": "ByteLevel",
    "add_prefix_space": true,
    "trim_offsets": false,
    "use_regex": true
  },
  "decoder": {
    "type": "ByteLevel",
    "add_prefix_space": true,
    "trim_offsets": true,
    "use_regex": true
  },
  "model": {
    "type": "BPE",
    "dropout": null,
    "unk_token": null,
    "continuing_subword_prefix": null,
    "end_of_word_suffix": null,
    "fuse_unk": false,
    "byte_fallback": true,
    "ignore_merges": false,
    "vocab": {
      "<|pad|>": 0,
      "<|endoftext|>": 1,
      "<|user|>": 2,
      "<|assistant|>": 3,
      "<|context|>": 4,
      "!": 5,
      "\"": 6,
      "#": 7,
      "$": 8,
      "%": 9,
      "&": 10,
      "'": 11,
      "(": 12,
      ")": 13,
      "*": 14,
      "+": 15,
      ",": 16,
      "-": 17,
      ".": 18,
      "/": 19,
      "0": 20,
      "1": 21,
      "2": 22,
      "3": 23,
      "4": 24,
      "5": 25,
      "6": 26,
      "7": 27,
      "8": 28,
      "9": 29,
      ":": 30,
      ";": 31,
      "<": 32,
      "=": 33,
      ">": 34,
      "?": 35,
      "@": 36,
      "A": 37,
      "B": 38,
      "C": 39,
      "D": 40,
      "E": 41,
      "F": 42,
      "G": 43,
      "H": 44,
      "I": 45,
      "J": 46,
      "K": 47,
      "L": 48,
      "M": 49,
      "N": 50,
      "O": 51,
      "P": 52,
      "Q": 53,
      "R": 54,
      "S": 55,
      "T": 56,
      "U": 57,
      "V": 58,
      "W": 59,
      "X": 60,
      "Y": 61,
      "Z": 62,
      "[": 63,
      "\\": 64,
      "]": 65,
      "^": 66,
      "_": 67,
      "`": 68,
      "a": 69,
      "b": 70,
      "c": 71,
      "d": 72,
      "e": 73,
      "f": 74,
      "g": 75,
      "h": 76,
      "i": 77,
      "j": 78,
      "k": 79,
      "l": 80,
      "m": 81,
      "n": 82,
      "o": 83,
      "p": 84,
      "q": 85,
      "r": 86,
      "s": 87,
      "t": 88,
      "u": 89,
      "v": 90,
      "w": 91,
      "x": 92,
      "y": 93,
      "z": 94,
      "{": 95,
      "|": 96,
      "}": 97,
      "~": 98,
      "¡": 99,
      "¢": 100,
      "£": 101,
      "¤": 102,
      "¥": 103,
      "¦": 104,
      "§": 105,
      "¨": 106,
      "©": 107,
      "ª": 108,
      "«": 109,
      "¬": 110,
      "®": 111,
      "¯": 112,
      "°": 113,
      "±": 114,
      "²": 115,
      "³": 116,
      "´": 117,
      "µ": 118,
      "¶": 119,
      "·": 120,
      "¸": 121,
      "¹": 122,
      "º": 123,
      "»": 124,
      "¼": 125,
      "½": 126,
      "¾": 127,
      "¿": 128,
      "À": 129,
      "Á": 130,
      "Â": 131,
      "Ã": 132,
      "Ä": 133,
      "Å": 134,
      "Æ": 135,
      "Ç": 136,
      "È": 137,
      "É": 138,
      "Ê": 139,
      "Ë": 140,
      "Ì": 141,
      "Í": 142,
      "Î": 143,
      "Ï": 144,
      "Ð": 145,
      "Ñ": 146,
      "Ò": 147,
      "Ó": 148,
      "Ô": 149,
      "Õ": 150,
      "Ö": 151,
      "×": 152,
      "Ø": 153,
      "Ù": 154,
      "Ú": 155,
      "Û": 156,
      "Ü": 157,
      "Ý": 158,
      "Þ": 159,
      "ß": 160,
      "à": 161,
      "á": 162,
      "â": 163,
      "ã": 164,
      "ä": 165,
      "å": 166,
      "æ": 167,
      "ç": 168,
      "è": 169,
      "é": 170,
      "ê": 171,
      "ë": 172,
      "ì": 173,
      "í": 174,
      "î": 175,
      "ï": 176,
      "ð": 177,
      "ñ": 178,
      "ò": 179,
      "ó": 180,
      "ô": 181,
      "õ": 182,
      "ö": 183,
      "÷": 184,
      "ø": 185,
      "ù": 186,
      "ú": 187,
      "û": 188,
      "ü": 189,
      "ý": 190,
      "þ": 191,
      "ÿ": 192,
      "Ā": 193,
      "ā": 194,
      "Ă": 195,
      "ă": 196,
      "Ą": 197,
      "ą": 198,
      "Ć": 199,
      "ć": 200,
      "Ĉ": 201,
      "ĉ": 202,
      "Ċ": 203,
      "ċ": 204,
      "Č": 205,
      "č": 206,
      "Ď": 207,
      "ď": 208,
      "Đ": 209,
      "đ": 210,
      "Ē": 211,
      "ē": 212,
      "Ĕ": 213,
      "ĕ": 214,
      "Ė": 215,
      "ė": 216,
      "Ę": 217,
      "ę": 218,
      "Ě": 219,
      "ě": 220,
      "Ĝ": 221,
      "ĝ": 222,
      "Ğ": 223,
      "ğ": 224,
      "Ġ": 225,
      "ġ": 226,
      "Ģ": 227,
      "ģ": 228,
      "Ĥ": 229,
      "ĥ": 230,
      "Ħ": 231,
      "ħ": 232,
      "Ĩ": 233,
      "ĩ": 234,
      "Ī": 235,
      "ī": 236,
      "Ĭ": 237,
      "ĭ": 238,
      "Į": 239,
      "į": 240,
      "İ": 241,
      "ı": 242,
      "Ĳ": 243,
      "ĳ": 244,
      "Ĵ": 245,
      "ĵ": 246,
      "Ķ": 247,
      "ķ": 248,
      "ĸ": 249,
      "Ĺ": 250,
      "ĺ": 251,
      "Ļ": 252,
      "ļ": 253,
      "Ľ": 254,
      "ľ": 255,
      "Ŀ": 256,
      "ŀ": 257,
      "Ł": 258,
      "ł": 259,
      "Ń": 260,
      "ie": 261,
      "Ġp": 262,
      "ÅĤ": 263,
      "Ġw": 264,
      "ow": 265,
      "na": 266,
      "st": 267,
      "Ġz": 268,
      "ni": 269,
      "cz": 270,
      "ÄĻ": 271,
      "ch": 272,
      "Äħ": 273,
      "rz": 274,
      "Ġs": 275,
      "ra": 276,
      "Ã³": 277,
      "nie": 278,
      "Ġd": 279,
      "Å¼": 280,
      "Ġo": 281,
      "ro": 282,
      "Ġt": 283,
      "Ġk": 284,
      "ÅĽ": 285,
      "Ġm": 286,
      "ne": 287,
      "Ġi": 288,
      "sz": 289,
      "Ġna": 290,
      "Ġpo": 291,
      "ny": 292,
      "li": 293,
      "dz": 294,
      "je": 295,
      "go": 296,
      "ia": 297,
      "le": 298,
      "ka": 299,
      "rze": 300,
      "ar": 301,
      "ki": 302,
      "iÄĻ": 303,
      "re": 304,
      "Ġb": 305,
      "Ã³w": 306,
      "ÅĤa": 307,
      "owa": 308,
      "Äĩ": 309,
      "Ġdo": 310,
      "Ġza": 311,
      "âĢ": 312,
      "la": 313,
      "nia": 314,
      "ci": 315,
      "er": 316,
      "wa": 317,
      "ko": 318,
      "ĠP": 319,
      "sta": 320,
      "or": 321,
      "ja": 322,
      "rzy": 323,
      "Ġa": 324,
      "ta": 325,
      "Ġwy": 326,
      "Ġu": 327,
      "no": 328,
      "ce": 329,
      "mi": 330,
      "Ġje": 331,
      "ty": 332,
      "da": 333,
      "ku": 334,
      "ĠW": 335,
      "kie": 336,
      "jÄħ": 337,
      "cy": 338,
      "ĠsiÄĻ": 339,
      "ÅĤo": 340,
      "Ġprze": 341,
      "ĠS": 342,
      "Ġnie": 343,
      "ĠâĢ": 344,
      "te": 345,
      "Ġ(": 346,
      "Å¼e": 347,
      "ry": 348,
      "ÅĦ": 349,
      "Ġko": 350,
      "Ġro": 351,
      "Ġg": 352,
      "cze": 353,
      "czy": 354,
      "po": 355,
      "en": 356,
      "ma": 357,
      "wo": 358,
      "ĠM": 359,
      "ÅĽci": 360,
      "cie": 361,
      "dy": 362,
      "tu": 363,
      "ĠK": 364,
      "nych": 365,
      "wi": 366,
      "owe": 367,
      "Ġod": 368,
      "owy": 369,
      "cj": 370,
      "ĠâĢĵ": 371,
      "lu": 372,
      "to": 373,
      "ru": 374,
      "ca": 375,
      "lo": 376,
      "ski": 377,
      "ĠB": 378,
      "ÅĤy": 379,
      "Ġte": 380,
      "my": 381,
      "dzie": 382,
      "ĠA": 383,
      "ĠN": 384,
      "wie": 385,
      "ĠC": 386,
      "Ġf": 387,
      "Ġmo": 388,
      "ĠT": 389,
      "tÃ³": 390,
      "Å¼y": 391,
      "do": 392,
      "zy": 393,
      "za": 394,
      "em": 395,
      "szy": 396,
      "ĠD": 397,
      "Ġja": 398,
      "Ġjest": 399,
      "Ġst": 400,
      "Ġma": 401,
      "ĠktÃ³": 402,
      "ga": 403,
      "cza": 404,
      "skie": 405,
      "Ġprzy": 406,
      "cji": 407,
      "ĠR": 408,
      "ĠJ": 409,
      "in": 410,
      "Ġto": 411,
      "mie": 412,
      "is": 413,
      "pa": 414,
      "ĠPo": 415,
      "sze": 416,
      "Ġty": 417,
      "raz": 418,
      "ÅĤu": 419,
      "du": 420,
      "by": 421,
      "ĠO": 422,
      "Ġta": 423,
      "ĠZ": 424,
      "on": 425,
      "Ġby": 426,
      "dzi": 427,
      "nej": 428,
      "Ġpro": 429,
      "ĠG": 430,
      "Ġin": 431,
      "ÅĽÄĩ": 432,
      "rÃ³": 433,
      "owie": 434,
      "de": 435,
      "an": 436,
      "Ġdz": 437,
      "ĠĊ": 438,
      "nego": 439,
      "mo": 440,
      "si": 441,
      "ĠÅĽ": 442,
      "ĠI": 443,
      "co": 444,
      "Ġpod": 445,
      "ĠL": 446,
      "mu": 447,
      "Ġe": 448,
      "gi": 449,
      "ĠÅ¼e": 450,
      "Ġob": 451,
      "wia": 452,
      "nÄħ": 453,
      "Ġre": 454,
      "nym": 455,
      "cho": 456,
      "owo": 457,
      "Ġsp": 458,
      "il": 459,
      "cja": 460,
      "Ġsz": 461,
      "wy": 462,
      "Ġwie": 463,
      "ob": 464,
      "Ġpra": 465,
      "Ġroz": 466,
      "Ġmie": 467,
      "sa": 468,
      "Ġcz": 469,
      "cia": 470,
      "ska": 471,
      "Ġpa": 472,
      "Ġsta": 473,
      "bi": 474,
      "kÃ³w": 475,
      "niu": 476,
      "sy": 477,
      "kt": 478,
      "ier": 479,
      "Ġprzez": 480,
      "owi": 481,
      "ĠF": 482,
      "Ġka": 483,
      "osta": 484,
      "âĢĿ": 485,
      "sza": 486,
      "sp": 487,
      "Ġlu": 488,
      "Ġr": 489,
      "Ġh": 490,
      "Ġli": 491,
      "Åº": 492,
      "niej": 493,
      "Ġze": 494,
      "su": 495,
      "Ġoraz": 496,
      "ĠH": 497,
      "gra": 498,
      "ur": 499,
      "sty": 500,
      "al": 501,
      "Ġroku": 502,
      "ĠâĢŀ": 503,
      "Ġjed": 504,
      "owych": 505,
      "ez": 506,
      "pie": 507,
      "dze": 508,
      "ĠE": 509,
      "ĠNa": 510,
      "dni": 511,
      "we": 512,
      "io": 513,
      "pu": 514,
      "bie": 515,
      "ba": 516,
      "Ġch": 517,
      "Ã³ÅĤ": 518,
      "pe": 519,
      "sto": 520,
      "ter": 521,
      "Ġwo": 522,
      "Ġdla": 523,
      "fi": 524,
      "owej": 525,
      "Ġkon": 526,
      "Ġn": 527,
      "ĠU": 528,
      "kÅĤa": 529,
      "ek": 530,
      "Ġczy": 531,
      "noÅĽci": 532,
      "Ġla": 533,
      "stÄĻ": 534,
      "jÄĻ": 535,
      "Ġni": 536,
      "un": 537,
      "Ġzna": 538,
      "Ġco": 539,
      "sie": 540,
      "Ġ-": 541,
      "Ġnaj": 542,
      "Ġzosta": 543,
      "Ġtak": 544,
      "ju": 545,
      "men": 546,
      "Ġsa": 547,
      "Ġjak": 548,
      "js": 549,
      "ran": 550,
      "pi": 551,
      "skiego": 552,
      "bu": 553,
      "ĠsÄħ": 554,
      "Ġspo": 555,
      "ĠktÃ³re": 556,
      "ĠktÃ³ry": 557,
      "ĠÅ": 558,
      "pis": 559,
      "gu": 560,
      "mia": 561,
      "Ġgo": 562,
      "Ġdzie": 563,
      "ÅĤe": 564,
      "so": 565,
      "pra": 566,
      "zna": 567,
      "rowa": 568,
      "jÄħcy": 569,
      ").": 570,
      "bo": 571,
      "Ġle": 572,
      "doc": 573,
      "|>": 574,
      "<|": 575,
      "dzia": 576,
      "Ġtym": 577,
      "me": 578,
      "Ġda": 579,
      "Å¼a": 580,
      "cyj": 581,
      "ona": 582,
      "czÄħ": 583,
      "tÃ³w": 584,
      "Ġmi": 585,
      "towa": 586,
      "ĠJe": 587,
      "kÄħ": 588,
      "bli": 589,
      "rza": 590,
      "cu": 591,
      "ĠMa": 592,
      "wÃ³": 593,
      "nd": 594,
      "owego": 595,
      "rzÄħ": 596,
      "skiej": 597,
      "Ġjako": 598,
      "jÄħc": 599,
      "ĠZa": 600,
      "),": 601,
      "Ġra": 602,
      "czas": 603,
      "nika": 604,
      "czne": 605,
      "Ġlub": 606,
      "spo": 607,
      "kowa": 608,
      "Ġpow": 609,
      "ĠKo": 610,
      "stÄĻp": 611,
      "ÅĤÄħ": 612,
      "Ġce": 613,
      "Ġprzed": 614,
      "dzo": 615,
      "rod": 616,
      "nÄĻ": 617,
      "ĠPol": 618,
      "wiÄħ": 619,
      "ri": 620,
      "czo": 621,
      "zu": 622,
      "Ġde": 623,
      "kre": 624,
      "Ġmia": 625,
      "dowa": 626,
      "Ġme": 627,
      "tor": 628,
      "nu": 629,
      "niem": 630,
      "Ġmiejs": 631,
      "jÄħce": 632,
      "cha": 633,
      "iÄĻk": 634,
      "ze": 635,
      "os": 636,
      "Ġmu": 637,
      "ery": 638,
      "Ġsy": 639,
      "Ġwi": 640,
      "dza": 641,
      "Ġfi": 642,
      "..": 643,
      "ierw": 644,
      "ĠJa": 645,
      "Ġswo": 646,
      "ĠPa": 647,
      "Po": 648,
      "ĠKa": 649,
      "szyst": 650,
      "ĠbÄĻ": 651,
      "cje": 652,
      "el": 653,
      "ÅĽcie": 654,
      "ĠwÅĤa": 655,
      "Ġbar": 656,
      "ĠNie": 657,
      "rÄĻ": 658,
      "lko": 659,
      "âĢĵ": 660,
      "kiem": 661,
      "um": 662,
      "ĠmoÅ¼e": 663,
      "for": 664,
      "tra": 665,
      "Ġba": 666,
      "Ġwz": 667,
      "Ġbez": 668,
      "Ġale": 669,
      "ĠmoÅ¼": 670,
      "iaÅĤa": 671,
      "Ã³wnie": 672,
      "tem": 673,
      "Ġwe": 674,
      "Ġpoz": 675,
      "dzy": 676,
      "ĠCh": 677,
      "nik": 678,
      "noÅĽÄĩ": 679,
      "ti": 680,
      "Ġos": 681,
      "tk": 682,
      "cznie": 683,
      "Ġtego": 684,
      "cki": 685,
      "ud": 686,
      "stwa": 687,
      "skich": 688,
      "cznych": 689,
      "ĠÅ¼y": 690,
      "ÅĽli": 691,
      "skim": 692,
      "ĠWy": 693,
      "owym": 694,
      "ist": 695,
      "Ġbo": 696,
      "lÄħ": 697,
      "ĠtakÅ¼e": 698,
      "Ġpol": 699,
      "Ġwszyst": 700,
      "ĠczÄĻ": 701,
      "he": 702,
      "cjÄĻ": 703,
      "Ġar": 704,
      "szcze": 705,
      "Ġpe": 706,
      "Ġjego": 707,
      "ji": 708,
      "siÄħ": 709,
      "kty": 710,
      "Ġca": 711,
      "war": 712,
      "kÄĻ": 713,
      "se": 714,
      "lej": 715,
      "nak": 716,
      "Ġwyko": 717,
      "siÄĻ": 718,
      "Å¼o": 719,
      "Ġju": 720,
      "rÃ³Å¼": 721,
      "cÃ³w": 722,
      "ng": 723,
      "Ã³l": 724,
      "tach": 725,
      "lÄĻ": 726,
      "ÅĤÃ³w": 727,
      "Ġpierw": 728,
      "kÅĤad": 729,
      "ktu": 730,
      "ĠdziaÅĤa": 731,
      "Ã³r": 732,
      "ĠDo": 733,
      "sowa": 734,
      "Ġwar": 735,
      "ĠteÅ¼": 736,
      "owÄħ": 737,
      "Ã³b": 738,
      "ckie": 739,
      "Ã³wnieÅ¼": 740,
      "ĠV": 741,
      "tni": 742,
      "ste": 743,
      "ÅĤem": 744,
      "Ġwsp": 745,
      "ory": 746,
      "niÄĻ": 747,
      "Ġdu": 748,
      "sÅĤa": 749,
      "Ġspra": 750,
      "Ġgru": 751,
      "ii": 752,
      "czny": 753,
      "nt": 754,
      "Ġ\"": 755,
      "ĠbyÅĤ": 756,
      "Ġof": 757,
      "ĠMi": 758,
      "bra": 759,
      "ĠrÃ³wnieÅ¼": 760,
      "sko": 761,
      "ĠÅĽwia": 762,
      "sÅĤu": 763,
      "ciÄħ": 764,
      "pad": 765,
      "Ġsie": 766,
      "Ġstro": 767,
      "szych": 768,
      "Ġc": 769,
      "Ġtra": 770,
      "Ġku": 771,
      "ĠRo": 772,
      "Ġtylko": 773,
      "Ġcza": 774,
      "ĠÅļ": 775,
      "Ġsto": 776,
      "czÄĻ": 777,
      "Ġlo": 778,
      "Ġpi": 779,
      "Ġwa": 780,
      "Ġsk": 781,
      "Ġpre": 782,
      "kich": 783,
      "rem": 784,
      "tego": 785,
      "ĠjuÅ¼": 786,
      "kaÅĦ": 787,
      "Ġich": 788,
      "powie": 789,
      "ec": 790,
      "ha": 791,
      "Ġpowie": 792,
      "Ġprodu": 793,
      "py": 794,
      "Ġkom": 795,
      "ĠMar": 796,
      "trzy": 797,
      "Ġdy": 798,
      "Ġog": 799,
      "cznej": 800,
      "dÄħ": 801,
      "Ġjednak": 802,
      "im": 803,
      "Ġor": 804,
      "Ġwyda": 805,
      "owania": 806,
      "ĠWar": 807,
      "sia": 808,
      "dnie": 809,
      "ct": 810,
      "ĠzostaÅĤ": 811,
      "ĠMo": 812,
      "ĠwiÄĻ": 813,
      "Ġznaj": 814,
      "ĠRa": 815,
      "fe": 816,
      "ĠX": 817,
      "trz": 818,
      "rÄħ": 819,
      "ĠbÄĻdzie": 820,
      "gani": 821,
      "ĠSz": 822,
      "Ġdru": 823,
      "stra": 824,
      "Ġpla": 825,
      "ĠbyÄĩ": 826,
      "Na": 827,
      "iÄĻdzy": 828,
      "Ġop": 829,
      "lar": 830,
      "nymi": 831,
      "gie": 832,
      "prze": 833,
      "ĠTo": 834,
      "ge": 835,
      "dzenia": 836,
      "Ġgra": 837,
      "Ġau": 838,
      "szÄħ": 839,
      "II": 840,
      "cÄħ": 841,
      "Ġbardzo": 842,
      "Ġtu": 843,
      "owaÄĩ": 844,
      "uro": 845,
      "Ġsamo": 846,
      "tka": 847,
      "zie": 848,
      "ali": 849,
      "ĠuÅ¼y": 850,
      "nek": 851,
      "Ġrze": 852,
      "Ġno": 853,
      "wiÄĻ": 854,
      "ĠBo": 855,
      "ĠRe": 856,
      "Ġjej": 857,
      "ĠIn": 858,
      "den": 859,
      "jÄħcych": 860,
      "lne": 861,
      "Ġokre": 862,
      "uk": 863,
      "czenia": 864,
      "trze": 865,
      "Ġry": 866,
      "nio": 867,
      "stwo": 868,
      "rzÄĻ": 869,
      "Ġmog": 870,
      "ĠLe": 871,
      "tr": 872,
      "ÅĽnie": 873,
      "Ġnad": 874,
      "Ġlat": 875,
      "wiÄħza": 876,
      "Ġmar": 877,
      "lem": 878,
      "ĠmoÅ¼na": 879,
      "nii": 880,
      "Ġcie": 881,
      "Ġpu": 882,
      "Ġfa": 883,
      "szej": 884,
      "dzÄħ": 885,
      "szym": 886,
      "ĠTa": 887,
      "ĠSta": 888,
      "Ġfor": 889,
      "Ġkra": 890,
      "tnie": 891,
      "owni": 892,
      "prowa": 893,
      "ĠkaÅ¼": 894,
      "sk": 895,
      "ing": 896,
      "pre": 897,
      "Ġser": 898,
      "ÅĽmy": 899,
      "ner": 900,
      "kim": 901,
      "Ġbi": 902,
      "nowa": 903,
      "Ġsob": 904,
      "forma": 905,
      "Ġnale": 906,
      "ol": 907,
      "pisy": 908,
      "now": 909,
      "rÃ³d": 910,
      "fa": 911,
      "Ġpar": 912,
      "Ġcho": 913,
      "Ġkil": 914,
      "tar": 915,
      "ĠWie": 916,
      "nku": 917,
      "ĠLi": 918,
      "Ġraz": 919,
      "th": 920,
      "logi": 921,
      "rzo": 922,
      "cznego": 923,
      "tek": 924,
      "tro": 925,
      "ĠPrze": 926,
      "Ġkie": 927,
      "kach": 928,
      "Przy": 929,
      "Ġim": 930,
      "am": 931,
      "Ġbu": 932,
      "Ġele": 933,
      "tki": 934,
      "Ġlatach": 935,
      "Ġpraw": 936,
      "ĠrÃ³Å¼": 937,
      "owanie": 938,
      "Ġdob": 939,
      "Å¼Äħ": 940,
      "dÃ³w": 941,
      "dziaÅĤ": 942,
      "unk": 943,
      "ÅĤam": 944,
      "Ġten": 945,
      "dziej": 946,
      "mina": 947,
      "gro": 948,
      "lity": 949,
      "Ġok": 950,
      "Ġswoje": 951,
      "stu": 952,
      "ĠbyÅĤo": 953,
      "cej": 954,
      "Ġtej": 955,
      "Ġgdy": 956,
      "czenie": 957,
      "rzu": 958,
      "Ġbra": 959,
      "Ġfil": 960,
      "zm": 961,
      "Ġal": 962,
      "nowi": 963,
      "ck": 964,
      "stem": 965,
      "ĠÅĤa": 966,
      "Ġmiesz": 967,
      "fia": 968,
      "ĠWarsza": 969,
      "Ġkolej": 970,
      "Ġga": 971,
      "liwo": 972,
      "Ġpie": 973,
      "Ġszko": 974,
      "||": 975,
      "ĠOd": 976,
      "stw": 977,
      "owaÅĤ": 978,
      "rzysta": 979,
      "Ġsty": 980,
      "staw": 981,
      "od": 982,
      "ĠBa": 983,
      "Ġkar": 984,
      "scy": 985,
      "ĠktÃ³ra": 986,
      "czna": 987,
      "pro": 988,
      "ĠTe": 989,
      "trzyma": 990,
      "zen": 991,
      "szo": 992,
      "nÄĻtrz": 993,
      "Ġodpowie": 994,
      "owia": 995,
      "ÅĦski": 996,
      "praw": 997,
      "stÄħ": 998,
      "czu": 999,
      "Ġsu": 1000,
      "ĠWo": 1001,
      "Ġprac": 1002,
      "âĢĿ.": 1003,
      "Ġjedno": 1004,
      "Za": 1005,
      "Ġspe": 1006,
      "Ġosob": 1007,
      "oru": 1008,
      "ej": 1009,
      "Ġnaz": 1010,
      "Ġwoj": 1011,
      "mery": 1012,
      "Ġfir": 1013,
      "ciu": 1014,
      "Ġdoda": 1015,
      "ral": 1016,
      "ers": 1017,
      "Ġzd": 1018,
      "mÃ³w": 1019,
      "kar": 1020,
      "Ġkla": 1021,
      "di": 1022,
      "Ã³d": 1023,
      "wiet": 1024,
      "Ġorgani": 1025,
      "szta": 1026,
      "ÅĤÄĻ": 1027,
      "Ġru": 1028,
      "Ġcze": 1029,
      "Ġzw": 1030,
      "mar": 1031,
      "Ġpowo": 1032,
      "lni": 1033,
      "Ġczas": 1034,
      "dar": 1035,
      "Ġdro": 1036,
      "ĠSa": 1037,
      "Ġmiejsce": 1038,
      "dob": 1039,
      "pisa": 1040,
      "wnÄĻtrz": 1041,
      "Ġaby": 1042,
      "sce": 1043,
      "wania": 1044,
      "kaza": 1045,
      "ns": 1046,
      "nÃ³w": 1047,
      "ĠAr": 1048,
      "Ġpowsta": 1049,
      "ul": 1050,
      "jemy": 1051,
      "kcji": 1052,
      "ĠbyÅĤa": 1053,
      "two": 1054,
      "tÄĻ": 1055,
      "dÄĻ": 1056,
      "zowa": 1057,
      "dem": 1058,
      "Ġtrze": 1059,
      "ĠdÅĤu": 1060,
      "wier": 1061,
      "ĠÅģ": 1062,
      "der": 1063,
      "pÅĤy": 1064,
      "tych": 1065,
      "Ġprowa": 1066,
      "Ġspos": 1067,
      "maty": 1068,
      "szego": 1069,
      "ĠCo": 1070,
      "lep": 1071,
      "stÄĻpu": 1072,
      "chni": 1073,
      "ktor": 1074,
      "dÅĤu": 1075,
      "strze": 1076,
      "istor": 1077,
      "nem": 1078,
      "Ġgdzie": 1079,
      "ser": 1080,
      "Ġpomo": 1081,
      "Ġoko": 1082,
      "dnia": 1083,
      "wet": 1084,
      "ĠĠ": 1085,
      "nta": 1086,
      "ĠPro": 1087,
      "waÄĩ": 1088,
      "ort": 1089,
      "ĠmiÄĻdzy": 1090,
      "chi": 1091,
      "Ġwieku": 1092,
      "koÅĦ": 1093,
      "ve": 1094,
      "kiej": 1095,
      "stru": 1096,
      "Ã³Åº": 1097,
      "Ġsobie": 1098,
      "cer": 1099,
      "ok": 1100,
      "zacji": 1101,
      "ren": 1102,
      "Przypisy": 1103,
      "kÅĤada": 1104,
      "siada": 1105,
      "lny": 1106,
      "...": 1107,
      "gÃ³l": 1108,
      "kry": 1109,
      "Ġszy": 1110,
      "maga": 1111,
      "Ġspraw": 1112,
      "sku": 1113,
      "szcza": 1114,
      "iÄĻki": 1115,
      "kow": 1116,
      "Ġznajdu": 1117,
      "czeÅĦ": 1118,
      "ĠkrÃ³": 1119,
      "Ġprzypad": 1120,
      "ÅĤowie": 1121,
      "ĠWa": 1122,
      "et": 1123,
      "ĠwspÃ³ÅĤ": 1124,
      "ĠII": 1125,
      "waÅ¼": 1126,
      "ĠwiÄĻk": 1127,
      "lnych": 1128,
      "Ġinforma": 1129,
      "Ġposta": 1130,
      "Ġsze": 1131,
      "tyw": 1132,
      "cznym": 1133,
      "Ġrozpo": 1134,
      "Ġszcze": 1135,
      "ene": 1136,
      "Ġwyso": 1137,
      "cjÄħ": 1138,
      "glÄħ": 1139,
      "ĠosÃ³b": 1140,
      "ÅĤoÅĽci": 1141,
      "Ġpodczas": 1142,
      "tera": 1143,
      "czyÄĩ": 1144,
      "ÅĤka": 1145,
      "Ġpracy": 1146,
      "chu": 1147,
      "zji": 1148,
      "ho": 1149,
      "tÄħ": 1150,
      "lnie": 1151,
      "Ġjeszcze": 1152,
      "tku": 1153,
      "Ġusta": 1154,
      "Ġzdo": 1155,
      "log": 1156,
      "jem": 1157,
      "twa": 1158,
      "âĢĿ,": 1159,
      "ĠKra": 1160,
      "ĠktÃ³rych": 1161,
      "Ġon": 1162,
      "ber": 1163,
      "nad": 1164,
      "kiego": 1165,
      "ĠniÅ¼": 1166,
      "Ġinter": 1167,
      "ĠPolsce": 1168,
      "daw": 1169,
      "chodzi": 1170,
      "ary": 1171,
      "dÅº": 1172,
      "ĠDa": 1173,
      "nki": 1174,
      "ĠMe": 1175,
      "ciw": 1176,
      "ĠÅĽrod": 1177,
      "Ġfunk": 1178,
      "ich": 1179,
      "Ġosta": 1180,
      "ir": 1181,
      "Ġmy": 1182,
      "Wy": 1183,
      "oba": 1184,
      "us": 1185,
      "lek": 1186,
      "Ġse": 1187,
      "mier": 1188,
      "liÅĽmy": 1189,
      "tru": 1190,
      "ĠEuro": 1191,
      "Ġproje": 1192,
      "Ġnawet": 1193,
      "leg": 1194,
      "menta": 1195,
      "res": 1196,
      "Ġczer": 1197,
      "peÅĤ": 1198,
      "Ġpew": 1199,
      "zi": 1200,
      "ĠczÄĻÅĽci": 1201,
      "ĠkoÅĦ": 1202,
      "Å¼ej": 1203,
      "ĠsÅĤu": 1204,
      "gen": 1205,
      "waÅĤ": 1206,
      "Ġpoja": 1207,
      "Ġpor": 1208,
      "Ġad": 1209,
      "kona": 1210,
      "cznÄħ": 1211,
      "Ġpoda": 1212,
      "Ġek": 1213,
      "roni": 1214,
      "Ġpolity": 1215,
      "cka": 1216,
      "miÄĻ": 1217,
      "ĠzÅĤo": 1218,
      "Ġuwa": 1219,
      "Ġzach": 1220,
      "Je": 1221,
      "ogra": 1222,
      "Ġrodzi": 1223,
      "szu": 1224,
      "ĠpeÅĤ": 1225,
      "Ġtych": 1226,
      "czni": 1227,
      "tora": 1228,
      "glÄĻ": 1229,
      "ĠCz": 1230,
      "Ġwykona": 1231,
      "dzenie": 1232,
      "ÅĤon": 1233,
      "ster": 1234,
      "wiÄħz": 1235,
      "be": 1236,
      "âĢĻ": 1237,
      "lie": 1238,
      "kami": 1239,
      "ĠbÄĻdÄħ": 1240,
      "merykaÅĦ": 1241,
      "ĠwÅĤas": 1242,
      "Ġwoje": 1243,
      "Ġinnych": 1244,
      "net": 1245,
      "ut": 1246,
      "Ġcy": 1247,
      "mach": 1248,
      "ĠPod": 1249,
      "per": 1250,
      "ÅĽwia": 1251,
      "bior": 1252,
      "ĠmajÄħ": 1253,
      "ĠOr": 1254,
      "czes": 1255,
      "ĠmogÄħ": 1256,
      "usz": 1257,
      "ara": 1258,
      "Ġnas": 1259,
      "Ġposiada": 1260,
      "wer": 1261,
      "ĠpÃ³ÅĤ": 1262,
      "pli": 1263,
      "ĠsposÃ³b": 1264,
      "wÃ³r": 1265,
      "bar": 1266,
      "Ġso": 1267,
      "nty": 1268,
      "ĠktÃ³rym": 1269,
      "Ġofer": 1270,
      "Ġzale": 1271,
      "Ġnich": 1272,
      "ĠPolski": 1273,
      "zo": 1274,
      "Ã³Åºniej": 1275,
      "ĠÅ»": 1276,
      "ĠzewnÄĻtrz": 1277,
      "wÃ³dz": 1278,
      "Ġsko": 1279,
      "sÃ³w": 1280,
      "nach": 1281,
      "ckiego": 1282,
      "star": 1283,
      "ĠpoczÄħ": 1284,
      "ÅĽcia": 1285,
      "ĠKon": 1286,
      "ĠFran": 1287,
      "Ġpotrze": 1288,
      "Ġsza": 1289,
      "ĠbyÅĤy": 1290,
      "miast": 1291,
      "stro": 1292,
      "jÄĻzy": 1293,
      "pera": 1294,
      "lnoÅĽci": 1295,
      "Ġczasie": 1296,
      "kro": 1297,
      "Ġwarto": 1298,
      "redni": 1299,
      "pl": 1300,
      "sÅĤaw": 1301,
      "dno": 1302,
      "sÅĤ": 1303,
      "wu": 1304,
      "Ġtwo": 1305,
      "mowa": 1306,
      "sztaÅĤ": 1307,
      "czyÅĤ": 1308,
      "cach": 1309,
      "ĠLu": 1310,
      "czej": 1311,
      "and": 1312,
      "Ġzwy": 1313,
      "wÃ³j": 1314,
      "rzÄħd": 1315,
      "Ġpozosta": 1316,
      "ĠWi": 1317,
      "Ġdzieci": 1318,
      "bÄĻ": 1319,
      "Ġsystem": 1320,
      "dzin": 1321,
      "Ġthe": 1322,
      "Ġmiejsc": 1323,
      "ĠzostaÅĤa": 1324,
      "Ġbud": 1325,
      "ĠÅĽwiat": 1326,
      "che": 1327,
      "ÅĦskiego": 1328,
      "ble": 1329,
      "cych": 1330,
      "rzenia": 1331,
      "Ġsku": 1332,
      "lnego": 1333,
      "Ġkilka": 1334,
      "Ġzmie": 1335,
      "gÄĻ": 1336,
      "pada": 1337,
      "ĠBy": 1338,
      "lnej": 1339,
      "tt": 1340,
      "ĠwiÄĻc": 1341,
      "owiÄħ": 1342,
      "ĠPra": 1343,
      "Ġzie": 1344,
      "ak": 1345,
      "ktÃ³w": 1346,
      "wen": 1347,
      "wanie": 1348,
      "mat": 1349,
      "ĠktÃ³rej": 1350,
      "Ġproce": 1351,
      "skÄħ": 1352,
      "Ġprzeciw": 1353,
      "ten": 1354,
      "hi": 1355,
      "Ġwiele": 1356,
      "tury": 1357,
      "Ġtele": 1358,
      "ĠDe": 1359,
      "Ġbie": 1360,
      "Ġuro": 1361,
      "budowa": 1362,
      "dow": 1363,
      "Ġzawo": 1364,
      "ĠnastÄĻp": 1365,
      "Ġdnia": 1366,
      "teria": 1367,
      "dek": 1368,
      "Ġnau": 1369,
      "Ġmnie": 1370,
      "ĠAl": 1371,
      "ler": 1372,
      "pÅĤa": 1373,
      "ĠGo": 1374,
      "niÄħ": 1375,
      "ĠzwiÄħza": 1376,
      "Ġniez": 1377,
      "Ġprogra": 1378,
      "dziÄĩ": 1379,
      "Ġtam": 1380,
      "ÅĤych": 1381,
      "Ġarty": 1382,
      "Å¼u": 1383,
      "ment": 1384,
      "Ġsprze": 1385,
      "pew": 1386,
      "Ġzmia": 1387,
      "ĠLa": 1388,
      "arÃ³w": 1389,
      "Å¼enia": 1390,
      "ibli": 1391,
      "ciÄĻ": 1392,
      "wane": 1393,
      "czywi": 1394,
      "tere": 1395,
      "mini": 1396,
      "Ġgmi": 1397,
      "ĠPrzy": 1398,
      "ÅĽnia": 1399,
      "Ġmuzy": 1400,
      "ĠnaleÅ¼y": 1401,
      "Ġkiedy": 1402,
      "Ġprzygo": 1403,
      "ĠspoÅĤe": 1404,
      "ĠSo": 1405,
      "ĠpÅĤy": 1406,
      "tne": 1407,
      "Ġtre": 1408,
      "onu": 1409,
      "ĠciÄħ": 1410,
      "ĠjÄĻzy": 1411,
      "ĠksiÄħ": 1412,
      "Nie": 1413,
      "bywa": 1414,
      "Ġsi": 1415,
      "Ġprzedsta": 1416,
      "dziÅĤ": 1417,
      "Ġspecja": 1418,
      "dej": 1419,
      "kra": 1420,
      "dzeni": 1421,
      "man": 1422,
      "Ġdoty": 1423,
      "chy": 1424,
      "ĠmÅĤo": 1425,
      "ĠmoÅ¼liwo": 1426,
      "Ġwal": 1427,
      "nikÃ³w": 1428,
      "Ġobec": 1429,
      "Ġpubli": 1430,
      "Ġpoprze": 1431,
      "rywa": 1432,
      "Ã³j": 1433,
      "Ġklu": 1434,
      "tej": 1435,
      "Ġwrze": 1436,
      "grani": 1437,
      "lan": 1438,
      "dania": 1439,
      "Ġszyb": 1440,
      "Ġpom": 1441,
      "spodar": 1442,
      "ĠWe": 1443,
      "Ġpozy": 1444,
      "taj": 1445,
      "ĠpÃ³Åºniej": 1446,
      "Do": 1447,
      "mio": 1448,
      "cen": 1449,
      "lenia": 1450,
      "ÅĤk": 1451,
      "ÅĤego": 1452,
      "ryty": 1453,
      "sti": 1454,
      "lna": 1455,
      "ĠmÃ³w": 1456,
      "stÃ³w": 1457,
      "dia": 1458,
      "ĠwÅĤaÅĽci": 1459,
      "Åºdzie": 1460,
      "Å¼enie": 1461,
      "ĠÅĽwie": 1462,
      "ĠNaj": 1463,
      "Ġha": 1464,
      "Ġstra": 1465,
      "ĠwiÄĻcej": 1466,
      "Ġzro": 1467,
      "Ġtere": 1468,
      "ĠktÃ³rzy": 1469,
      "por": 1470,
      "czest": 1471,
      "tion": 1472,
      "ĠwzglÄĻ": 1473,
      "rek": 1474,
      "Ġprzypadku": 1475,
      "ĠzÅĤ": 1476,
      "stÄħpi": 1477,
      "ĠAu": 1478,
      "inki": 1479,
      "try": 1480,
      "ard": 1481,
      "cÄĻ": 1482,
      "twie": 1483,
      "jÄħca": 1484,
      "Ġpis": 1485,
      "prezen": 1486,
      "sen": 1487,
      "mniej": 1488,
      "ron": 1489,
      "Ġwielu": 1490,
      "Ã©": 1491,
      "ÅĤowa": 1492,
      "biera": 1493,
      "Ġstanowi": 1494,
      "ĠgÅĤÃ³w": 1495,
      "Ġmiasta": 1496,
      "âĢ¦": 1497,
      "wiÄĻk": 1498,
      "Ġfina": 1499,
      "Ġtrzy": 1500,
      "ÅĽla": 1501,
      "ĠAn": 1502,
      "dÅĤug": 1503,
      "ĠzewnÄĻtrzne": 1504,
      "lega": 1505,
      "vi": 1506,
      "Ġstar": 1507,
      "ĠUni": 1508,
      "fika": 1509,
      "Ġzgo": 1510,
      "zuje": 1511,
      "Ġzespo": 1512,
      "czki": 1513,
      "Âł": 1514,
      "stytu": 1515,
      "ĠJo": 1516,
      "cyjne": 1517,
      "daÅĦ": 1518,
      "zd": 1519,
      "dÅĤ": 1520,
      "ÅĦstwa": 1521,
      "ĠMu": 1522,
      "Ġniemie": 1523,
      "Ġwszystkich": 1524,
      "Ġponad": 1525,
      "soby": 1526,
      "Ġkonie": 1527,
      "wca": 1528,
      "iel": 1529,
      "ĠCa": 1530,
      "stnie": 1531,
      "ezpie": 1532,
      "ografia": 1533,
      "pol": 1534,
      "Ġpolski": 1535,
      "ÅĤym": 1536,
      "ÅĤej": 1537,
      "Ġpara": 1538,
      "ĠjÄħ": 1539,
      "ĠPi": 1540,
      "ÅĽrÃ³d": 1541,
      "tua": 1542,
      "mii": 1543,
      "Ġjedy": 1544,
      "nosi": 1545,
      "nicy": 1546,
      "sem": 1547,
      "om": 1548,
      "Ġkobie": 1549,
      "ĠPar": 1550,
      "ĠTy": 1551,
      "ĠdostÄĻp": 1552,
      "dne": 1553,
      ".,": 1554,
      "Ġotrzyma": 1555,
      "ĠzaÅĤo": 1556,
      "tw": 1557,
      "ĠÅ¼ycia": 1558,
      "ĠamerykaÅĦ": 1559,
      "Ġdwa": 1560,
      "ÅĽwiad": 1561,
      "Ġauto": 1562,
      "ckiej": 1563,
      "ĠkaÅ¼dy": 1564,
      "czego": 1565,
      "Linki": 1566,
      "ple": 1567,
      "rab": 1568,
      "rach": 1569,
      "ĠczÄĻsto": 1570,
      "ĠwojewÃ³dz": 1571,
      "ĠgÅĤ": 1572,
      "jÄĻcia": 1573,
      "ote": 1574,
      "spÃ³ÅĤ": 1575,
      "ĠmÃ³wi": 1576,
      "Ġdzi": 1577,
      "jo": 1578,
      "Ġbardziej": 1579,
      "Ġzawie": 1580,
      "ĠThe": 1581,
      "ĠPu": 1582,
      "lnym": 1583,
      "ĠmÄĻ": 1584,
      "IE": 1585,
      "ĠktÃ³rego": 1586,
      "Ġuzy": 1587,
      "ĠDz": 1588,
      "ĠGa": 1589,
      "ktÃ³": 1590,
      "noc": 1591,
      "Ġumie": 1592,
      "dniej": 1593,
      "ĠdziÄĻki": 1594,
      "ss": 1595,
      "ctwa": 1596,
      "wali": 1597,
      "ke": 1598,
      "ĠwpÅĤy": 1599,
      "szko": 1600,
      "jÄħcego": 1601,
      "czone": 1602,
      "owane": 1603,
      "ĠJu": 1604,
      "Ġdanych": 1605,
      "isku": 1606,
      "kla": 1607,
      "Ġstud": 1608,
      "orÃ³w": 1609,
      "ly": 1610,
      "muje": 1611,
      "stosowa": 1612,
      "Ġchara": 1613,
      "pnia": 1614,
      "Ġlicz": 1615,
      "min": 1616,
      "rii": 1617,
      "sÅĤugi": 1618,
      "Ġstrony": 1619,
      "Ġelekt": 1620,
      "Ġnp": 1621,
      "lnoÅĽÄĩ": 1622,
      "ĠOb": 1623,
      "Ġczyli": 1624,
      "Ġnim": 1625,
      "Ġrodza": 1626,
      "ÅĽniej": 1627,
      "Ġwiel": 1628,
      "Ġobie": 1629,
      "Ġhistor": 1630,
      "niki": 1631,
      "land": 1632,
      "Ġzaw": 1633,
      "Ġspotka": 1634,
      "Ġzapew": 1635,
      "ĠKrzy": 1636,
      "Ġwyb": 1637,
      "ĠJest": 1638,
      "Ġstycz": 1639,
      "Ġak": 1640,
      "niÄĩ": 1641,
      "owoÅĽci": 1642,
      "Ġcelu": 1643,
      "ĠzwiÄħz": 1644,
      "Ġreali": 1645,
      "Ġzam": 1646,
      "ktyw": 1647,
      "czka": 1648,
      "gna": 1649,
      "Ġsier": 1650,
      "ĠPe": 1651,
      "Ġwia": 1652,
      "Ġnam": 1653,
      "ĠmieszkaÅĦ": 1654,
      "chodzÄħ": 1655,
      "ĠÅ¼a": 1656,
      "Ġtakie": 1657,
      "fo": 1658,
      "ĠBar": 1659,
      "jski": 1660,
      "ĠwÅĤo": 1661,
      "Ġtran": 1662,
      "Ko": 1663,
      "ĠBe": 1664,
      "Ġzamie": 1665,
      "Åºdzier": 1666,
      "Ġpowin": 1667,
      "par": 1668,
      "Ġkul": 1669,
      "Ġtru": 1670,
      "Bibli": 1671,
      "lenie": 1672,
      "ĠNi": 1673,
      "owarzy": 1674,
      "rwa": 1675,
      "kowie": 1676,
      "owski": 1677,
      "ĠRze": 1678,
      "bezpie": 1679,
      "ĠgÅĤo": 1680,
      "Å»": 1681,
      "Ġstanie": 1682,
      "Ġstos": 1683,
      "Ġv": 1684,
      "Ġczasu": 1685,
      "Ġcia": 1686,
      "cyjnych": 1687,
      "ministra": 1688,
      "Ġnada": 1689,
      "tkowo": 1690,
      "rom": 1691,
      "Ġnajlep": 1692,
      "Ġzasa": 1693,
      "Ġkre": 1694,
      "wio": 1695,
      "kle": 1696,
      "ĠÅĤÄħ": 1697,
      "Ġklasy": 1698,
      "Ġzdoby": 1699,
      "wala": 1700,
      "Ġlisto": 1701,
      "ĠHa": 1702,
      "ĠpaÅºdzier": 1703,
      "ĠpÅĤa": 1704,
      "owany": 1705,
      "Ġpierwszy": 1706,
      "ĠSe": 1707,
      "Ġmusi": 1708,
      "rÃ³ci": 1709,
      "ĠpoÅĤo": 1710,
      "uje": 1711,
      "nienia": 1712,
      "stawie": 1713,
      "Prze": 1714,
      "pozy": 1715,
      "czeÅĽniej": 1716,
      "Å¼li": 1717,
      "ntÃ³w": 1718,
      "ĠWiel": 1719,
      "Ġpozio": 1720,
      "koÅĽci": 1721,
      "dzna": 1722,
      "Ġlip": 1723,
      "stwie": 1724,
      "Ġsez": 1725,
      "Ġwraz": 1726,
      "ĠrÄĻ": 1727,
      "ĠwrzeÅĽnia": 1728,
      "rÃ³w": 1729,
      "Bibliografia": 1730,
      "chro": 1731,
      "Ġmieszka": 1732,
      "Ġgro": 1733,
      "tami": 1734,
      "ÅĦstw": 1735,
      "Ġdrugie": 1736,
      "Ġkosz": 1737,
      "ĠLo": 1738,
      "toli": 1739,
      "Ġmniej": 1740,
      "ĠokoÅĤo": 1741,
      "ĠSy": 1742,
      "Ġzda": 1743,
      "Ġznajduje": 1744,
      "ĠrozwiÄħza": 1745,
      "Ġmateria": 1746,
      "Ġoka": 1747,
      "ww": 1748,
      "ĠÅ¼": 1749,
      "sji": 1750,
      "ĠjeÅĽli": 1751,
      "Ġnowo": 1752,
      "Ġsytua": 1753,
      "czeniu": 1754,
      "wersy": 1755,
      "Ġkilku": 1756,
      "ÅĤoÅĽÄĩ": 1757,
      "ĠJan": 1758,
      "Ġwybra": 1759,
      "czych": 1760,
      "ĠksiÄħÅ¼": 1761,
      "Ġkwiet": 1762,
      "Ma": 1763,
      "ĠczÄĻÅĽÄĩ": 1764,
      "Ġozna": 1765,
      "Ġsprzeda": 1766,
      "mienia": 1767,
      "ĠY": 1768,
      "ĠpoÅĽ": 1769,
      "Ġdni": 1770,
      "Ġwszystkie": 1771,
      "nÄħÄĩ": 1772,
      "zja": 1773,
      "ĠAnd": 1774,
      "cznoÅĽci": 1775,
      "ĠzakoÅĦ": 1776,
      "Ġpy": 1777,
      "ÅĦskiej": 1778,
      "ĠmiaÅĤ": 1779,
      "wÃ³ch": 1780,
      "obacz": 1781,
      "szka": 1782,
      "szenia": 1783,
      "ĠwaÅ¼": 1784,
      "wersyte": 1785,
      "czyna": 1786,
      "Ġzaj": 1787,
      "mowy": 1788,
      "ĠczÅĤon": 1789,
      "tomiast": 1790,
      "com": 1791,
      "Ġwymaga": 1792,
      "Ġloka": 1793,
      "ĠszczegÃ³l": 1794,
      "ĠMie": 1795,
      "Ġmaja": 1796,
      "Ġsil": 1797,
      "Ġzakre": 1798,
      "ĠdÅĤugo": 1799,
      "Ġwszystkim": 1800,
      "zyden": 1801,
      "ĠHo": 1802,
      "ver": 1803,
      "czony": 1804,
      "Ġter": 1805,
      "Ġjeden": 1806,
      "ton": 1807,
      "nios": 1808,
      "Ġuzyska": 1809,
      "jÄħcym": 1810,
      "gii": 1811,
      "ĠdwÃ³ch": 1812,
      "Ġ,": 1813,
      "Ġuda": 1814,
      "Ġgospodar": 1815,
      "ĠNe": 1816,
      "ium": 1817,
      "bardziej": 1818,
      "Ġtytu": 1819,
      "Ġgene": 1820,
      "Ġmin": 1821,
      "jÄħcej": 1822,
      "Å¼eli": 1823,
      "Ġnr": 1824,
      "Ġsamy": 1825,
      "Ġper": 1826,
      "wÄĻ": 1827,
      "prac": 1828,
      "ĠkoÅĽci": 1829,
      "jsk": 1830,
      "Ġzdr": 1831,
      "owiada": 1832,
      "Ġws": 1833,
      "Ġzapa": 1834,
      "Ġwprowa": 1835,
      "Ġwers": 1836,
      "lia": 1837,
      "Ġkier": 1838,
      "cjona": 1839,
      "cenia": 1840,
      "Ġpowodu": 1841,
      "Ġklie": 1842,
      "Ġsztu": 1843,
      "Ġistnie": 1844,
      "Ġjakie": 1845,
      "Ġludzi": 1846,
      "Uro": 1847,
      "ÅĽni": 1848,
      "Ġci": 1849,
      "Ġwska": 1850,
      "ckim": 1851,
      "it": 1852,
      "ctwo": 1853,
      "pita": 1854,
      "Ġsiebie": 1855,
      "Ġcharakt": 1856,
      "ĠÅĽw": 1857,
      "cÅĤa": 1858,
      "fek": 1859,
      "Ġponie": 1860,
      "Ġczerwca": 1861,
      "gh": 1862,
      "ina": 1863,
      "Ġne": 1864,
      "ĠUS": 1865,
      "ĠBu": 1866,
      "Ġdomu": 1867,
      "Ġdecy": 1868,
      "ĠKu": 1869,
      "Ġ:": 1870,
      "Ġzde": 1871,
      "len": 1872,
      "ĠSu": 1873,
      "Ġzapo": 1874,
      "Ġsam": 1875,
      "ĠÐ": 1876,
      "wÄħ": 1877,
      "ria": 1878,
      "Pol": 1879,
      "gÄħ": 1880,
      "ĠwspÃ³l": 1881,
      "qu": 1882,
      "Ġstycznia": 1883,
      "niku": 1884,
      "Ġwypo": 1885,
      "Ġregu": 1886,
      "Ġchwi": 1887,
      "ĠprÃ³": 1888,
      "row": 1889,
      "Ġsek": 1890,
      "Ġzwie": 1891,
      "ĠurzÄħ": 1892,
      "Ġkonku": 1893,
      "Ġpan": 1894,
      "onÄħ": 1895,
      "Ġprzygotowa": 1896,
      "Ġwojny": 1897,
      "ĠDu": 1898,
      "ĠCzy": 1899,
      "ĠÅĽmier": 1900,
      "tura": 1901,
      "Ġinne": 1902,
      "wyÅ¼": 1903,
      "nami": 1904,
      "ckich": 1905,
      "ĠobowiÄħ": 1906,
      "Ġuczest": 1907,
      "Ġbezpie": 1908,
      "jskiej": 1909,
      "ÅĤudni": 1910,
      "pia": 1911,
      "Åļ": 1912,
      "Ġwarun": 1913,
      "Ġzawiera": 1914,
      "Ġosoby": 1915,
      "naj": 1916,
      "ĠwÄĻ": 1917,
      "Ġtro": 1918,
      "ĠFa": 1919,
      "Ġand": 1920,
      "ĠHe": 1921,
      "pular": 1922,
      "wski": 1923,
      "Ġuzna": 1924,
      "Ġmode": 1925,
      "szenie": 1926,
      "Ġfo": 1927,
      "Ġgrudnia": 1928,
      "ĠtÅĤu": 1929,
      "Ġ.": 1930,
      "va": 1931,
      "Ġwszystko": 1932,
      "Ġkol": 1933,
      "dli": 1934,
      "szech": 1935,
      "jÄħcÄħ": 1936,
      "ĠpoÅĤÄħ": 1937,
      "stan": 1938,
      "Ġmarca": 1939,
      "ĠosiÄħ": 1940,
      "biÄĩ": 1941,
      "Ġkomu": 1942,
      "ĠCi": 1943,
      "ĠDzie": 1944,
      "Ġzawsze": 1945,
      "Ġzg": 1946,
      "Ġbudy": 1947,
      "domo": 1948,
      "ĠudziaÅĤ": 1949,
      "kom": 1950,
      "nes": 1951,
      "Od": 1952,
      "ĠdotyczÄħ": 1953,
      "Ġinternet": 1954,
      "Ġpodstaw": 1955,
      "zacja": 1956,
      "menty": 1957,
      "ĠciÄĻ": 1958,
      "ĠTwo": 1959,
      "Ġtakich": 1960,
      "Ġstronie": 1961,
      "Ġmini": 1962,
      "szczy": 1963,
      "Ġostatni": 1964,
      "ÅĦska": 1965,
      "logii": 1966,
      "leÅ¼": 1967,
      "arÃ³wno": 1968,
      "ĠZe": 1969,
      "jcie": 1970,
      "ĠwÅĤaÅĽnie": 1971,
      "ĠWil": 1972,
      "ĠDla": 1973,
      "Ġpun": 1974,
      "czeÅĽnie": 1975,
      "ĠpoczÄħtku": 1976,
      "Ġsame": 1977,
      "ĠÅĽwiata": 1978,
      "Ġlek": 1979,
      "noÅĽciÄħ": 1980,
      "Ro": 1981,
      "tedy": 1982,
      "Ġkwietnia": 1983,
      "owymi": 1984,
      "wodni": 1985,
      "ĠRu": 1986,
      "Å¼ony": 1987,
      "wany": 1988,
      "lii": 1989,
      "Å¼yÄĩ": 1990,
      "ĠpaÅºdziernika": 1991,
      "ciel": 1992,
      "Ġul": 1993,
      "Ġlipca": 1994,
      "ĠJed": 1995,
      "gar": 1996,
      "Ġstosu": 1997,
      "nne": 1998,
      "czeni": 1999,
      "Ġkraju": 2000,
      "Pro": 2001,
      "twar": 2002,
      "tel": 2003,
      "at": 2004,
      "blem": 2005,
      "Ġkto": 2006,
      "Ġska": 2007,
      "ĠksiÄĻ": 2008,
      "iera": 2009,
      "cep": 2010,
      "tacji": 2011,
      "Ġczym": 2012,
      "bro": 2013,
      "pla": 2014,
      "ĠwystÄĻpu": 2015,
      "Åģ": 2016,
      "ĠczÅĤowie": 2017,
      "ĠzostaÅĤy": 2018,
      "Ġpowierz": 2019,
      "ĠWarszawie": 2020,
      "ĠwczeÅĽniej": 2021,
      "Ġmist": 2022,
      "ÅĽciÄħ": 2023,
      "rzenie": 2024,
      "bia": 2025,
      "Ġkieru": 2026,
      "cyjny": 2027,
      "Ġdaw": 2028,
      "Ġkorzysta": 2029,
      "glÄħda": 2030,
      "Ġbia": 2031,
      "Ġjaki": 2032,
      "tym": 2033,
      "czonych": 2034,
      "wem": 2035,
      "rew": 2036,
      "ĠNo": 2037,
      "Ġtemu": 2038,
      "piej": 2039,
      "Ġchce": 2040,
      "byt": 2041,
      "moÅ¼li": 2042,
      "Ġdoku": 2043,
      "ciem": 2044,
      "Ã³g": 2045,
      "Ġsierpnia": 2046,
      "ĠXV": 2047,
      "Ġtypu": 2048,
      "lin": 2049,
      "Ġdobrze": 2050,
      "ĠÅº": 2051,
      "Ġfirmy": 2052,
      "jskich": 2053,
      "Ġpodob": 2054,
      "Ġspa": 2055,
      "mentu": 2056,
      "szcz": 2057,
      "Ġnajbardziej": 2058,
      "lacji": 2059,
      "tory": 2060,
      "Ġalbo": 2061,
      "Ġswoich": 2062,
      "Ġlistopada": 2063,
      "ĠrÃ³w": 2064,
      "ĠnajwiÄĻk": 2065,
      "tur": 2066,
      "Ġani": 2067,
      "fer": 2068,
      "tural": 2069,
      "Ġreprezen": 2070,
      "gÃ³w": 2071,
      "bio": 2072,
      "zw": 2073,
      "ĠUniwersyte": 2074,
      "kowe": 2075,
      "Ġokoli": 2076,
      "fii": 2077,
      "bur": 2078,
      "Ġramach": 2079,
      "Ã³ry": 2080,
      "raca": 2081,
      "Ġmiejscu": 2082,
      "zer": 2083,
      "lach": 2084,
      "Ġniego": 2085,
      "racji": 2086,
      "dnych": 2087,
      "uka": 2088,
      "ĠswojÄħ": 2089,
      "nali": 2090,
      "laz": 2091,
      "Ġczyn": 2092,
      "ĠaÅ¼": 2093,
      "Ġprawa": 2094,
      "Ġeksp": 2095,
      "istory": 2096,
      "Ġzain": 2097,
      "ĠnastÄĻpnie": 2098,
      "kcie": 2099,
      "Ġadministra": 2100,
      "AN": 2101,
      "wiÄĩ": 2102,
      "Ġzaku": 2103,
      "Ġjednym": 2104,
      "Ka": 2105,
      "Ġhi": 2106,
      "siÄĻbior": 2107,
      "lub": 2108,
      "Ġlata": 2109,
      "Ġprawo": 2110,
      "narod": 2111,
      "Zobacz": 2112,
      "Ġone": 2113,
      "Ġniej": 2114,
      "ĠrÃ³Å¼nych": 2115,
      "Re": 2116,
      "zio": 2117,
      "ĠskÅĤa": 2118,
      "zmu": 2119,
      "nka": 2120,
      "ĠJak": 2121,
      "ĠWarszawa": 2122,
      "Ġwspo": 2123,
      "ownikÃ³w": 2124,
      "rancu": 2125,
      "Ġilo": 2126,
      "ĠIII": 2127,
      "lim": 2128,
      "Ġaktor": 2129,
      "jÃ³w": 2130,
      "Ġdom": 2131,
      "ĠRy": 2132,
      "Ġkonta": 2133,
      "Ġprakty": 2134,
      "wal": 2135,
      "Ġgrani": 2136,
      "les": 2137,
      "Ġpoko": 2138,
      "mentÃ³w": 2139,
      "Ġpozwala": 2140,
      "cego": 2141,
      "Ġrazem": 2142,
      "rami": 2143,
      "Ġsamym": 2144,
      "Ġprzeprowa": 2145,
      "ĠÅ¼eby": 2146,
      "ĠzarÃ³wno": 2147,
      "pÄĻ": 2148,
      "iska": 2149,
      "ĠpamiÄĻ": 2150,
      "Ġcu": 2151,
      "Urodzeni": 2152,
      "Ġsamocho": 2153,
      "Ġterenie": 2154,
      "Ġpisa": 2155,
      "Ġ[": 2156,
      "Ġodby": 2157,
      "ĠdoÅĽwiad": 2158,
      "ÅĤÃ³": 2159,
      "ĠpiÄĻ": 2160,
      "Ġbli": 2161,
      "dziaÅĤu": 2162,
      "Å¼ona": 2163,
      "ĠskÅĤada": 2164,
      "ĠFe": 2165,
      "dro": 2166,
      "sh": 2167,
      "publi": 2168,
      "Ġtemat": 2169,
      "//": 2170,
      "ĠJeÅĽli": 2171,
      "nkÃ³w": 2172,
      "ĠAle": 2173,
      "Ġstwo": 2174,
      "mÄĻ": 2175,
      "ĠPio": 2176,
      "ĠDy": 2177,
      "ĠSp": 2178,
      "ang": 2179,
      "Ġpyta": 2180,
      "Ġgatu": 2181,
      "czywiÅĽcie": 2182,
      "ĠRoz": 2183,
      "ĠmieszkaÅĦcÃ³w": 2184,
      "Ġide": 2185,
      "Ġkli": 2186,
      "lnÄħ": 2187,
      "jÄħÅĤ": 2188,
      "ĠoÅĽ": 2189,
      "czÄĻÅĽcie": 2190,
      "Ġuli": 2191,
      "jedno": 2192,
      "Ġnauk": 2193,
      "ĠwiÄĻkszo": 2194,
      "ĠSzko": 2195,
      "Å¼one": 2196,
      "ÅĦstwo": 2197,
      "ĠCen": 2198,
      "ĠNarod": 2199,
      "Ġener": 2200,
      "Ġkur": 2201,
      "ĠcoÅĽ": 2202,
      "Ġtrwa": 2203,
      "Ġprezen": 2204,
      "Ġkole": 2205,
      "Ġjednost": 2206,
      "Ġgrupy": 2207,
      "Ġbe": 2208,
      "Ġfilm": 2209,
      "Lu": 2210,
      "gnie": 2211,
      "czaj": 2212,
      "ĠsÅĤo": 2213,
      "aru": 2214,
      "cami": 2215,
      "jska": 2216,
      "Ġobej": 2217,
      "dnio": 2218,
      "ĠXI": 2219,
      "cjach": 2220,
      "III": 2221,
      "mysÅĤ": 2222,
      "ĠRos": 2223,
      "tnoÅĽci": 2224,
      "niÅĤ": 2225,
      "niach": 2226,
      "owoÅĽÄĩ": 2227,
      "Ġnatomiast": 2228,
      "Ġwielo": 2229,
      "zyj": 2230,
      "Ġdowo": 2231,
      "ĠniektÃ³": 2232,
      "ttp": 2233,
      "Ġpoprzez": 2234,
      "ĠokreÅĽ": 2235,
      "rocÅĤa": 2236,
      "Ġswojej": 2237,
      "\".": 2238,
      "Ġtrzeba": 2239,
      "ita": 2240,
      "Ġokresie": 2241,
      "Ġstanow": 2242,
      "istoria": 2243,
      "es": 2244,
      "Ġona": 2245,
      "ĠktÃ³rÄħ": 2246,
      "Ġpier": 2247,
      "ĠKar": 2248,
      "siÅĤ": 2249,
      "ĠXX": 2250,
      "Ġlutego": 2251,
      "Ġpoli": 2252,
      "Ġkry": 2253,
      "Ġograni": 2254,
      "leks": 2255,
      "ld": 2256,
      "://": 2257,
      "Ġofi": 2258,
      "sach": 2259,
      "ĠtÄĻ": 2260,
      "dach": 2261,
      "twier": 2262,
      "chno": 2263,
      "tom": 2264,
      "ĠwzglÄĻdu": 2265,
      "dio": 2266,
      "tery": 2267,
      "ĠPre": 2268,
      "Ġpozna": 2269,
      "twarza": 2270,
      "Ã¡": 2271,
      "ĠBra": 2272,
      "Ġrozwo": 2273,
      "chÄĻ": 2274,
      "szÄĻ": 2275,
      "ĠwspÃ³ÅĤpra": 2276,
      "wskiego": 2277,
      "Ġwzro": 2278,
      "Ġ/": 2279,
      "Ġwsi": 2280,
      "Ġdow": 2281,
      "Ġinformacji": 2282,
      "gry": 2283,
      "let": 2284,
      "mer": 2285,
      "Ġpoza": 2286,
      "mon": 2287,
      "danie": 2288,
      "Ġkm": 2289,
      "Ja": 2290,
      "Ġopie": 2291,
      "ĠzaÅĽ": 2292,
      "Ġmoc": 2293,
      "widu": 2294,
      "ĠksztaÅĤ": 2295,
      "Ġwykorzysta": 2296,
      "mpa": 2297,
      "Ġproblem": 2298,
      "dego": 2299,
      "ĠuÅ¼ytk": 2300,
      "Ġdosta": 2301,
      "Ġmeto": 2302,
      "ĠokrÄĻ": 2303,
      "cko": 2304,
      "ĠNiem": 2305,
      "ĠÅ¼ycie": 2306,
      "kÃ³ÅĤ": 2307,
      "Ġki": 2308,
      "nar": 2309,
      "rea": 2310,
      "ĠpiÅĤka": 2311,
      "ĠKoÅĽci": 2312,
      "ĠskÅĤad": 2313,
      "obec": 2314,
      "Ġzawar": 2315,
      "ĠSte": 2316,
      "ĠFi": 2317,
      "ĠusÅĤu": 2318,
      "ksztaÅĤ": 2319,
      "ces": 2320,
      "dra": 2321,
      "Ġtek": 2322,
      "ĠpÃ³ÅĤnoc": 2323,
      "Ġpodej": 2324,
      "Ġjedynie": 2325,
      "In": 2326,
      "Ġmiejsca": 2327,
      "Ġkro": 2328,
      "ÅĦskim": 2329,
      "Ġgry": 2330,
      "Ġprofe": 2331,
      "Ġznale": 2332,
      "ĠSÄħ": 2333,
      "Ġban": 2334,
      "ĠponiewaÅ¼": 2335,
      "Ġwykorzy": 2336,
      "Ġsce": 2337,
      "Ġzre": 2338,
      "nk": 2339,
      "ĠÅļwia": 2340,
      "powiada": 2341,
      "ĠKrÃ³": 2342,
      "jskiego": 2343,
      "cydowa": 2344,
      "Ġwtedy": 2345,
      "Ġautor": 2346,
      "Ġczego": 2347,
      "ĠĠĠĠ": 2348,
      "ĠGe": 2349,
      "wiel": 2350,
      "Ġochro": 2351,
      "ĠCie": 2352,
      "Ġotwar": 2353,
      "Ġswoim": 2354,
      "piero": 2355,
      "ĠwÄħ": 2356,
      "ĠrozpoczÄĻ": 2357,
      "siÄĻcy": 2358,
      "kacji": 2359,
      "nsowa": 2360,
      "nienie": 2361,
      "Ġpole": 2362,
      "ĠÅĽwiecie": 2363,
      "Ġpio": 2364,
      "Ġregi": 2365,
      "ĠdziaÅĤania": 2366,
      "ĠTu": 2367,
      "Ġinnymi": 2368,
      "Ð°": 2369,
      "szpa": 2370,
      "oÅĤa": 2371,
      "ĠSi": 2372,
      "Ġprzestrze": 2373,
      "Ã³wczas": 2374,
      "wych": 2375,
      "Te": 2376,
      "ĠÅĽwiÄĻ": 2377,
      "ĠÅļwiÄĻ": 2378,
      "wicz": 2379,
      "ĠwieÅĽ": 2380,
      "tali": 2381,
      "Ġnaszej": 2382,
      "Ġnieza": 2383,
      "Ġpotrzeb": 2384,
      "OW": 2385,
      "ĠwyÅĤÄħ": 2386,
      "Mo": 2387,
      "ĠBer": 2388,
      "gle": 2389,
      "Ġdzia": 2390,
      "kol": 2391,
      "koÅĽÄĩ": 2392,
      "tny": 2393,
      "spoli": 2394,
      "Ġfrancu": 2395,
      "stety": 2396,
      "ĠiÅ¼": 2397,
      "Ġobro": 2398,
      "ksy": 2399,
      "Ġlotni": 2400,
      "Ġrozwi": 2401,
      "tal": 2402,
      "ĠduÅ¼y": 2403,
      "ĠPozna": 2404,
      "nÄħÅĤ": 2405,
      "onie": 2406,
      "nale": 2407,
      "Ð¾": 2408,
      "Ġzastosowa": 2409,
      "Å¼czy": 2410,
      "Ġrok": 2411,
      "Ġutwo": 2412,
      "rÃ³j": 2413,
      "ĠJego": 2414,
      "Ġprzysz": 2415,
      "Ġtechni": 2416,
      "Ġpsy": 2417,
      "kon": 2418,
      "ĠCho": 2419,
      "ĠmoÅ¼liwoÅĽÄĩ": 2420,
      "Ġdwie": 2421,
      "nomi": 2422,
      "ownik": 2423,
      "Ġtrady": 2424,
      "Ġwyra": 2425,
      "tuje": 2426,
      "Ġtygo": 2427,
      "Ġpopular": 2428,
      "br": 2429,
      "Ġmoje": 2430,
      "Ġwojsk": 2431,
      "Ġarchi": 2432,
      "gdy": 2433,
      "Ġszero": 2434,
      "prasza": 2435,
      "dzieÄĩ": 2436,
      "chow": 2437,
      "rysty": 2438,
      "tan": 2439,
      "Ġdie": 2440,
      "ĠSer": 2441,
      "bÄħ": 2442,
      "Pod": 2443,
      "wej": 2444,
      "Ġchoro": 2445,
      "jona": 2446,
      "Ġwsze": 2447,
      "ĠroÅĽli": 2448,
      "owÄĻ": 2449,
      "Ġproble": 2450,
      "dnoÅĽci": 2451,
      "ĠStani": 2452,
      "ĠmieÄĩ": 2453,
      "ÅĤnie": 2454,
      "Ġkontro": 2455,
      "Ġdzien": 2456,
      "Ġoznacza": 2457,
      "ĠÅ»y": 2458,
      "Ġtem": 2459,
      "ĠciÄĻÅ¼": 2460,
      "ĠprzedsiÄĻbior": 2461,
      "ĠpiÅĤ": 2462,
      "Ġprzede": 2463,
      "Ġge": 2464,
      "Ġem": 2465,
      "lowa": 2466,
      "niejsze": 2467,
      "Ġmam": 2468,
      "Ġzu": 2469,
      "cieli": 2470,
      "ĠmiesiÄħ": 2471,
      "Ġrynku": 2472,
      "Ġdlatego": 2473,
      "kuje": 2474,
      "ĠMicha": 2475,
      "Ġopera": 2476,
      "listy": 2477,
      "Ġrodzin": 2478,
      "Ġho": 2479,
      "ĠpiÄĻk": 2480,
      "AT": 2481,
      "are": 2482,
      "Ġaktyw": 2483,
      "czyÅĤa": 2484,
      "sÅĤawa": 2485,
      "tnych": 2486,
      "ph": 2487,
      "Pi": 2488,
      "Ġopa": 2489,
      "ĠgÅĤÃ³wnie": 2490,
      "ros": 2491,
      "biega": 2492,
      "Li": 2493,
      "Ġtaki": 2494,
      "Ġhistorii": 2495,
      "Ġdwu": 2496,
      "Ġcen": 2497,
      "torem": 2498,
      "ĠPla": 2499,
      "Ġteraz": 2500,
      "Ġnowe": 2501,
      "ĠMist": 2502,
      "poÅĽ": 2503,
      "ĠMia": 2504,
      "ÅĦskie": 2505,
      "gniÄĻ": 2506,
      "Pa": 2507,
      "Ġsuk": 2508,
      "ĠKomi": 2509,
      "niesie": 2510,
      "ĠzwiÄĻk": 2511,
      "twÃ³r": 2512,
      "ĠdruÅ¼y": 2513,
      "ĠchÅĤo": 2514,
      "Ġindy": 2515,
      "ĠBia": 2516,
      "Ġdrugi": 2517,
      "Ġstop": 2518,
      "ÅĤkowi": 2519,
      "towy": 2520,
      "rucho": 2521,
      "ĠGra": 2522,
      "Ġprezyden": 2523,
      "Ġinwe": 2524,
      "ĠBi": 2525,
      "Ġkoniec": 2526,
      "gan": 2527,
      "ĠZie": 2528,
      "teresowa": 2529,
      "ĠzwiÄħzku": 2530,
      "sek": 2531,
      "Ġtzw": 2532,
      "ĠzespoÅĤu": 2533,
      "ĠdzieÅĦ": 2534,
      "Ġpodstawie": 2535,
      "rzyÄĩ": 2536,
      "Ġzapro": 2537,
      "ger": 2538,
      "kcja": 2539,
      "Ġtelewi": 2540,
      "Ġmamy": 2541,
      "Ġserwi": 2542,
      "ĠchoÄĩ": 2543,
      "Ġprzej": 2544,
      "isko": 2545,
      "mawia": 2546,
      "Å¼yÅĤ": 2547,
      "ĠzarzÄħ": 2548,
      "ĠmoÅ¼emy": 2549,
      "Ġnaszych": 2550,
      "Ġcieka": 2551,
      "Ġnor": 2552,
      "ĠÅĽredni": 2553,
      "Ġhistory": 2554,
      "Ġran": 2555,
      "Ġwyposa": 2556,
      "trÃ³w": 2557,
      "czek": 2558,
      "jskie": 2559,
      "ĠWÅĤo": 2560,
      "ĠÅ¼o": 2561,
      "AR": 2562,
      "Ġnapraw": 2563,
      "Ġwody": 2564,
      "ĠwÅĽrÃ³d": 2565,
      "Ġang": 2566,
      "ĠWÅĤa": 2567,
      "fikowa": 2568,
      "mor": 2569,
      "Ġfizy": 2570,
      "pospoli": 2571,
      "Ġmiasto": 2572,
      "ĠmiaÅĤa": 2573,
      "Ġdrugiej": 2574,
      "Ġkoncer": 2575,
      "lony": 2576,
      "ĠÅĽwiad": 2577,
      "wego": 2578,
      "Ġsport": 2579,
      "Ġniepo": 2580,
      "ĠprzykÅĤad": 2581,
      "lone": 2582,
      "Odzna": 2583,
      "dopo": 2584,
      "son": 2585,
      "Ġeko": 2586,
      "mal": 2587,
      "Ã¼": 2588,
      "ĠHi": 2589,
      "ĠwyjÄħ": 2590,
      "ĠuwagÄĻ": 2591,
      "rzej": 2592,
      "ÅĦskich": 2593,
      "âĢŀ": 2594,
      "ĠpomiÄĻdzy": 2595,
      "ou": 2596,
      ".)": 2597,
      "Ġgodzi": 2598,
      "cyjnego": 2599,
      "tkowa": 2600,
      "towaÅĤ": 2601,
      "ff": 2602,
      "ĠPan": 2603,
      "chowa": 2604,
      "towi": 2605,
      "cem": 2606,
      "Ġzm": 2607,
      "ĠgÃ³r": 2608,
      "ĠzwyciÄĻ": 2609,
      "rych": 2610,
      "nuje": 2611,
      "Ġeg": 2612,
      "Ġâ": 2613,
      "ĠJoh": 2614,
      "Ġskle": 2615,
      "ĠRob": 2616,
      "Ġpowia": 2617,
      "Ġwynosi": 2618,
      "czeÅĦstwa": 2619,
      "ĠzostaÅĤo": 2620,
      "ĠPie": 2621,
      "dzone": 2622,
      "wana": 2623,
      "unda": 2624,
      "ĠwedÅĤug": 2625,
      "Ġprzyczy": 2626,
      "Ġlecz": 2627,
      "ĠEurope": 2628,
      "zdy": 2629,
      "cyjnej": 2630,
      "Ġrodziny": 2631,
      "towe": 2632,
      "Ġobraz": 2633,
      "Ġpomoc": 2634,
      "daÄĩ": 2635,
      "ian": 2636,
      "Ġmili": 2637,
      "Ġobsz": 2638,
      "Ã³ze": 2639,
      "rÃ³t": 2640,
      "Ġdosko": 2641,
      "Ġsprawie": 2642,
      "Ġdokona": 2643,
      "nica": 2644,
      "cym": 2645,
      "Ġsiedzi": 2646,
      "waran": 2647,
      "ad": 2648,
      "kade": 2649,
      "Ġprzyja": 2650,
      "wczy": 2651,
      "ĠwystÄĻp": 2652,
      "ĠpomocÄħ": 2653,
      "Ġdobre": 2654,
      "ĠPola": 2655,
      "!!": 2656,
      "przy": 2657,
      "ownika": 2658,
      "Ġtys": 2659,
      "ciÄĩ": 2660,
      "Ġorganiza": 2661,
      "tna": 2662,
      "lik": 2663,
      "Ludzie": 2664,
      "Ġzakresie": 2665,
      "Ġkompu": 2666,
      "Ġit": 2667,
      "Ġkonkur": 2668,
      "wki": 2669,
      "logia": 2670,
      "Ġpotra": 2671,
      "chodni": 2672,
      "ĠÅĽwiatowej": 2673,
      "ĠJednak": 2674,
      "Ġalbu": 2675,
      "ĠInter": 2676,
      "Ġprywa": 2677,
      "Historia": 2678,
      "cenie": 2679,
      "dal": 2680,
      "krÄĻ": 2681,
      "Ġefek": 2682,
      "ĠpoÅĤudni": 2683,
      "Ġpostaci": 2684,
      "Ġswojego": 2685,
      "ĠGdy": 2686,
      "Ġrzecz": 2687,
      "ĠumoÅ¼li": 2688,
      "cjon": 2689,
      "Ġwykony": 2690,
      "czÄħÅĤ": 2691,
      "ST": 2692,
      "ĠStar": 2693,
      "togra": 2694,
      "wiek": 2695,
      "Ġprzedstawi": 2696,
      "iÄħ": 2697,
      "bor": 2698,
      "Ġwymia": 2699,
      "Ġeuro": 2700,
      "sio": 2701,
      "widual": 2702,
      "Ġdodatk": 2703,
      "ĠnastÄĻpu": 2704,
      "Ġdzis": 2705,
      "ĠmoÅ¼liwoÅĽci": 2706,
      "ĠCze": 2707,
      "feren": 2708,
      "Dz": 2709,
      "ĠciÄħgu": 2710,
      "rum": 2711,
      "Ġpierwsze": 2712,
      "ĠuwaÅ¼a": 2713,
      "moc": 2714,
      "dyna": 2715,
      "Å»y": 2716,
      "To": 2717,
      "Ġskrzy": 2718,
      "sja": 2719,
      "Ġartyku": 2720,
      "Ġcm": 2721,
      "Ġprzezna": 2722,
      "Ġodci": 2723,
      "ĠÅĽmierci": 2724,
      "Ġzdecydowa": 2725,
      "eli": 2726,
      "ĠswÃ³j": 2727,
      "tow": 2728,
      "tyka": 2729,
      "ĠrzÄħ": 2730,
      "Ġczar": 2731,
      "Ġnic": 2732,
      "Ġcoraz": 2733,
      "ĠFor": 2734,
      "Ġforma": 2735,
      "ĠamerykaÅĦski": 2736,
      "Ġtutaj": 2737,
      "ĠmÄĻÅ¼czy": 2738,
      "ĠDziÄĻki": 2739,
      "ĠBry": 2740,
      "Ġlitera": 2741,
      "mÃ³wie": 2742,
      "Ġszybko": 2743,
      "dzÄĻ": 2744,
      "We": 2745,
      "ĠwÃ³wczas": 2746,
      "ciela": 2747,
      "ĠPierw": 2748,
      "Ġstru": 2749,
      "Ġgminy": 2750,
      "gram": 2751,
      "ura": 2752,
      "Ġkraj": 2753,
      "stry": 2754,
      "Ġblo": 2755,
      "ĠWrocÅĤa": 2756,
      "Ġrodzaju": 2757,
      "ĠmoÅ¼li": 2758,
      "\",": 2759,
      "Ġtechno": 2760,
      "Ġfinans": 2761,
      "liwoÅĽci": 2762,
      "ĠnaleÅ¼a": 2763,
      "ĠJÃ³ze": 2764,
      "Ġodkry": 2765,
      "Å¼na": 2766,
      "ĠkrÃ³t": 2767,
      "Ġobecnie": 2768,
      "mencie": 2769,
      "Ġleka": 2770,
      "ĠSan": 2771,
      "Ġjeste": 2772,
      "wz": 2773,
      "kolwiek": 2774,
      "Ġpowi": 2775,
      "Ġpowierzchni": 2776,
      "towaÄĩ": 2777,
      "Jak": 2778,
      "ĠPow": 2779,
      "ĠzespÃ³ÅĤ": 2780,
      "ĠJana": 2781,
      "Ġwyja": 2782,
      "Å¼em": 2783,
      "Ġrosy": 2784,
      "ĠcaÅĤkowi": 2785,
      "sami": 2786,
      "ĠwartoÅĽci": 2787,
      "Ġponow": 2788,
      "Ġzau": 2789,
      "Ġpocho": 2790,
      "ĠogÃ³l": 2791,
      "ted": 2792,
      "ĠSpo": 2793,
      "Ġzaba": 2794,
      "Ġanty": 2795,
      "nione": 2796,
      "syw": 2797,
      "ĠbezpoÅĽ": 2798,
      "dami": 2799,
      "tecznie": 2800,
      "ĠdziaÅĤalnoÅĽci": 2801,
      "IA": 2802,
      "Sz": 2803,
      "Ġnatural": 2804,
      "ĠLud": 2805,
      "Ġusu": 2806,
      "tkÃ³w": 2807,
      "bieg": 2808,
      "Ġtur": 2809,
      "Ġnapisa": 2810,
      "Ġpora": 2811,
      "ĠtwÃ³r": 2812,
      "kÅĤadu": 2813,
      "Naj": 2814,
      "Ġisto": 2815,
      "Ġdrew": 2816,
      "Ġkos": 2817,
      "Ġtowarzy": 2818,
      "ĠmiÄĻ": 2819,
      "ĠjakoÅĽci": 2820,
      "Ġkatoli": 2821,
      "ĠdziÅĽ": 2822,
      "ĠSto": 2823,
      "line": 2824,
      "ĠusÅĤug": 2825,
      "Ġnowych": 2826,
      "limpi": 2827,
      "para": 2828,
      "Ġprofes": 2829,
      "czÄĻÅĽciej": 2830,
      "ĠspÃ³ÅĤ": 2831,
      "krai": 2832,
      "Ġzainteresowa": 2833,
      "kowy": 2834,
      "lina": 2835,
      "nikiem": 2836,
      "ĠGru": 2837,
      "ĠsÅĤuÅ¼": 2838,
      "ĠobowiÄħz": 2839,
      "pio": 2840,
      "Ġwynika": 2841,
      "ĠcaÅĤy": 2842,
      "dobnie": 2843,
      "Ġjednego": 2844,
      "Ġwio": 2845,
      "Ġpierwszej": 2846,
      "organi": 2847,
      "ktual": 2848,
      "onÃ³w": 2849,
      "Ġkan": 2850,
      "ĠnaprawdÄĻ": 2851,
      "ĠduÅ¼o": 2852,
      "Ġczu": 2853,
      "Ġinte": 2854,
      "ĠMy": 2855,
      "ĠÅļlÄħ": 2856,
      "woli": 2857,
      "ĠkaÅ¼dego": 2858,
      "chÃ³d": 2859,
      "nic": 2860,
      "Ġprojekt": 2861,
      "Ġwido": 2862,
      "Ġchcia": 2863,
      "ĠÅĽrodow": 2864,
      "owiem": 2865,
      "ER": 2866,
      "Ġpolityk": 2867,
      "ĠdokÅĤad": 2868,
      "Zmar": 2869,
      "zwy": 2870,
      "trza": 2871,
      "Ð¸": 2872,
      "dowy": 2873,
      "Ġwielko": 2874,
      "ĠPrzed": 2875,
      "Ġsieci": 2876,
      "Ġkonstru": 2877,
      "ĠGu": 2878,
      "Ġkwa": 2879,
      "Ġnauczy": 2880,
      "Ġfe": 2881,
      "rie": 2882,
      "Ġwyniku": 2883,
      "ĠZjedno": 2884,
      "Ġprzyzna": 2885,
      "nal": 2886,
      "Ġrekla": 2887,
      "ĠzajÄĻ": 2888,
      "ĠAng": 2889,
      "Ġcharaktery": 2890,
      "ĠHen": 2891,
      "ĠwyglÄħda": 2892,
      "Ġinformacje": 2893,
      "wor": 2894,
      "Ġbryty": 2895,
      "ĠSzcze": 2896,
      "Ġprzyj": 2897,
      "bry": 2898,
      "ortu": 2899,
      "Odznaczeni": 2900,
      "Ġpolskich": 2901,
      "ĠTak": 2902,
      "ĠEuropy": 2903,
      "Ġcel": 2904,
      "ĠmyÅĽ": 2905,
      "graÅĤ": 2906,
      "Ġjednej": 2907,
      "mnia": 2908,
      "ĠUSA": 2909,
      "Ġwyzna": 2910,
      "ĠMini": 2911,
      "ĠmoÅ¼esz": 2912,
      "owana": 2913,
      "Ġpowiecie": 2914,
      "lona": 2915,
      "Ġbyli": 2916,
      "Cz": 2917,
      "Ġzmiany": 2918,
      "zywa": 2919,
      "cznoÅĽÄĩ": 2920,
      "Ġpojawi": 2921,
      "cent": 2922,
      "ĠÅºrÃ³d": 2923,
      "ego": 2924,
      "ĠSie": 2925,
      "Ðµ": 2926,
      "Co": 2927,
      "kali": 2928,
      "Ġkrzy": 2929,
      "czona": 2930,
      "ĠgdyÅ¼": 2931,
      "serwa": 2932,
      "Ġeta": 2933,
      "Ġwywo": 2934,
      "Ġsytuacji": 2935,
      "wiajÄħ": 2936,
      "rzem": 2937,
      "Ġindywidual": 2938,
      "ÅºÄĩ": 2939,
      "Ġhttp": 2940,
      "Ġzni": 2941,
      "szuki": 2942,
      "Ġwiadomo": 2943,
      "wym": 2944,
      "cieÅ¼": 2945,
      "dny": 2946,
      "Ġtrakcie": 2947,
      "Ġdane": 2948,
      "ĠAda": 2949,
      "Ġzapewnia": 2950,
      "gÃ³": 2951,
      "gÅĤo": 2952,
      "bso": 2953,
      "Ã¶": 2954,
      "au": 2955,
      "Ġhand": 2956,
      "Ġnaszym": 2957,
      "Ġgminie": 2958,
      "Ġmor": 2959,
      "Ã³z": 2960,
      "ĠCar": 2961,
      "ll": 2962,
      "cznymi": 2963,
      "Ġopar": 2964,
      "Ġprodukcji": 2965,
      "ĠsprzÄĻ": 2966,
      "ĠCe": 2967,
      "ts": 2968,
      "grzy": 2969,
      "mbo": 2970,
      "giem": 2971,
      "mien": 2972,
      "dniu": 2973,
      "usza": 2974,
      "Ġpodzie": 2975,
      "Ġtrzech": 2976,
      "Ġdal": 2977,
      "nij": 2978,
      "Ġznalaz": 2979,
      "ĠwysokoÅĽci": 2980,
      "spi": 2981,
      "ON": 2982,
      "szki": 2983,
      "lew": 2984,
      "ĠzaczÄĻ": 2985,
      "torzy": 2986,
      "ĠPR": 2987,
      "Ġl": 2988,
      "ĠreÅ¼y": 2989,
      "szedÅĤ": 2990,
      "ĠXIX": 2991,
      "ĠmiejscowoÅĽci": 2992,
      "chodniej": 2993,
      "Ġbio": 2994,
      "jecha": 2995,
      "Ġdia": 2996,
      "Ġrozwoju": 2997,
      "Ġdziedzi": 2998,
      "ĠPolskiego": 2999,
      "sÅĤo": 3000,
      "Ġodpowiedzia": 3001,
      "wÅĤa": 3002,
      "Ġopi": 3003,
      "ĠszkoÅĤy": 3004,
      "Ġprojektu": 3005,
      "Ġwystar": 3006,
      "ĠStu": 3007,
      "Ġodda": 3008,
      "Ã³gÅĤ": 3009,
      "ĠpaÅĦstw": 3010,
      "ĠkaÅ¼dym": 3011,
      "ya": 3012,
      "wienia": 3013,
      "Ġsma": 3014,
      "ĠAd": 3015,
      "ĠPolska": 3016,
      "kowej": 3017,
      "Ġwszel": 3018,
      "ĠjednÄħ": 3019,
      "Ġml": 3020,
      "Ġzawodni": 3021,
      "stÄħpiÅĤ": 3022,
      "Ġuczestni": 3023,
      "Ġkatego": 3024,
      "Polscy": 3025,
      "Ġpotem": 3026,
      "kowych": 3027,
      "west": 3028,
      "Ġosa": 3029,
      "dna": 3030,
      "ĠkoÅĦca": 3031,
      "Ġbisku": 3032,
      "owaÅĤa": 3033,
      "tre": 3034,
      "taÄĩ": 3035,
      "ĠÅ¼oÅĤnie": 3036,
      "Ġokaza": 3037,
      "Ġpomocy": 3038,
      "Ġdopiero": 3039,
      "Ġoce": 3040,
      "gina": 3041,
      "Ġodpowiedni": 3042,
      "cyjna": 3043,
      "Czy": 3044,
      "Ġpierwszym": 3045,
      "ds": 3046,
      "ĠpracÄĻ": 3047,
      "pen": 3048,
      "Ġpomy": 3049,
      "ĠnaleÅ¼Äħ": 3050,
      "Ġrobi": 3051,
      "Ġprzewodni": 3052,
      "rzeÅĦ": 3053,
      "piÄĻ": 3054,
      "Ġpoka": 3055,
      "Ġtempera": 3056,
      "Da": 3057,
      "niejszych": 3058,
      "ĠwojewÃ³dztwie": 3059,
      "zeum": 3060,
      "ĠJez": 3061,
      "AC": 3062,
      "Ġpiosen": 3063,
      "Ġnarod": 3064,
      "owiec": 3065,
      "dr": 3066,
      "Ġutw": 3067,
      "puszcza": 3068,
      "ks": 3069,
      "Ġinstru": 3070,
      "Ġniewiel": 3071,
      "ven": 3072,
      "ĠMoÅ¼e": 3073,
      "ĠsÅĤowa": 3074,
      "Ġmistrzo": 3075,
      "Ġnaszego": 3076,
      "chani": 3077,
      "Ġprogram": 3078,
      "Ġwnios": 3079,
      "Ġsamolo": 3080,
      "ĠGre": 3081,
      "jach": 3082,
      "zjÄĻ": 3083,
      "Ġznajdzie": 3084,
      "nin": 3085,
      "Ġkr": 3086,
      "Ġtransp": 3087,
      "Ġkomi": 3088,
      "Ġkolo": 3089,
      "kowane": 3090,
      "ĠsobÄħ": 3091,
      "rÃ³cz": 3092,
      "Ġple": 3093,
      "ĠpaÅĦstwa": 3094,
      "Ġzmar": 3095,
      "ĠdowÃ³d": 3096,
      "Ġmedy": 3097,
      "nisty": 3098,
      "Ġstwier": 3099,
      "ĠGÃ³r": 3100,
      "dzien": 3101,
      "koÅĤa": 3102,
      "stoÅĽci": 3103,
      "Ġprawie": 3104,
      "ĠRady": 3105,
      "ĠUniwersytetu": 3106,
      "Ġdalej": 3107,
      "Ġkredy": 3108,
      "jczy": 3109,
      "jÄĻcie": 3110,
      "ĠciaÅĤa": 3111,
      "Ġobu": 3112,
      "Ġtar": 3113,
      "Zmarli": 3114,
      "ĠEl": 3115,
      "Ġbadania": 3116,
      "Ġpli": 3117,
      "grody": 3118,
      "Ġdra": 3119,
      "obie": 3120,
      "ÅĽciach": 3121,
      "Ġangiel": 3122,
      "Ġsystemu": 3123,
      "ĠsÅĤa": 3124,
      "Ġmaszy": 3125,
      "iedy": 3126,
      "Ġprowadzi": 3127,
      "Ġfirm": 3128,
      "tii": 3129,
      "ĠnajwyÅ¼": 3130,
      "ĠwojewÃ³dztwa": 3131,
      "ĠnajwaÅ¼": 3132,
      "bili": 3133,
      "ĠWal": 3134,
      "Ġsub": 3135,
      "tyczne": 3136,
      "jne": 3137,
      "dowo": 3138,
      "Ġlinii": 3139,
      "tak": 3140,
      "ÄħdÅº": 3141,
      "ÅĤat": 3142,
      "Ġpotwier": 3143,
      "Ġspowo": 3144,
      "Ġkomunika": 3145,
      "Ch": 3146,
      "Ġwej": 3147,
      "czym": 3148,
      "Ġan": 3149,
      "ĠpoÅĽwiÄĻ": 3150,
      "dziela": 3151,
      "__": 3152,
      "ktury": 3153,
      "owcÃ³w": 3154,
      "Ġrazy": 3155,
      "OR": 3156,
      "plo": 3157,
      "wach": 3158,
      "kowski": 3159,
      "sied": 3160,
      "Ġchodzi": 3161,
      "ĠszczegÃ³lnie": 3162,
      "Ġzy": 3163,
      "Al": 3164,
      "Ġwobec": 3165,
      "mieni": 3166,
      "Ġlep": 3167,
      "Ġprostu": 3168,
      "ÅĤki": 3169,
      "EN": 3170,
      "Ġzim": 3171,
      "dzania": 3172,
      "Ġklub": 3173,
      "ĠwyrÃ³Å¼": 3174,
      "kowi": 3175,
      "kniÄĻ": 3176,
      "ĠHar": 3177,
      "Ġniezwy": 3178,
      "szÅĤo": 3179,
      "Sta": 3180,
      "miar": 3181,
      "Ob": 3182,
      "Ġdrze": 3183,
      "pisu": 3184,
      "ĠÂ": 3185,
      "Ġnag": 3186,
      "ĠWszyst": 3187,
      "Ġher": 3188,
      "Mi": 3189,
      "Ġrzeczy": 3190,
      "bel": 3191,
      "ĠznajdujÄħ": 3192,
      "ĠÅĽwiet": 3193,
      "Ð½": 3194,
      "ĠpoÅ¼y": 3195,
      "Ġzbudowa": 3196,
      "ciej": 3197,
      "Ġprzedmio": 3198,
      "czno": 3199,
      "ĠogÅĤo": 3200,
      "ĠmiÄĻdzynarod": 3201,
      "ĠHu": 3202,
      "Ġdostar": 3203,
      "szczegÃ³l": 3204,
      "fikacji": 3205,
      "jekt": 3206,
      "dostÄĻp": 3207,
      "pania": 3208,
      "duje": 3209,
      "Ġnasze": 3210,
      "dziaÅĤa": 3211,
      "pÃ³w": 3212,
      "Ġstara": 3213,
      "Ġat": 3214,
      "Ġszuka": 3215,
      "Ġogrom": 3216,
      "tio": 3217,
      "owanych": 3218,
      "Ġsen": 3219,
      "ĠsÅĤ": 3220,
      "owaniu": 3221,
      "Ġreje": 3222,
      "Ġseria": 3223,
      "ĠâĢĶ": 3224,
      "szyscy": 3225,
      "Ġatra": 3226,
      "ĠwyÅ¼": 3227,
      "ĠspeÅĤ": 3228,
      "Ġzgodnie": 3229,
      "ĠjednoczeÅĽnie": 3230,
      "Ġstrze": 3231,
      "yba": 3232,
      "szczÄĻ": 3233,
      "chÃ³w": 3234,
      "wnÄħ": 3235,
      "spek": 3236,
      "np": 3237,
      "ĠÅģo": 3238,
      "Ġobo": 3239,
      "Ġdar": 3240,
      "torÃ³w": 3241,
      "Ġzoba": 3242,
      "nien": 3243,
      "ĠdoÅĽÄĩ": 3244,
      "ĠkoÅĦcu": 3245,
      "ĠtÅĤuma": 3246,
      "dzony": 3247,
      "ĠczÅĤowieka": 3248,
      "ĠduÅ¼e": 3249,
      "Ġbowiem": 3250,
      "dzeniu": 3251,
      "ft": 3252,
      "ĠproduktÃ³w": 3253,
      "Ġstand": 3254,
      "niony": 3255,
      "waj": 3256,
      "ĠpiÅĤkarz": 3257,
      "ĠgÅĤÄĻ": 3258,
      "Ġprawdzi": 3259,
      "ĠNor": 3260,
      "ĠÅĽcia": 3261,
      "czono": 3262,
      "Ġokres": 3263,
      "Ġboga": 3264,
      "zÃ³w": 3265,
      "ĠzwiÄħzane": 3266,
      "Wie": 3267,
      "Ġedy": 3268,
      "ĠTra": 3269,
      "Ġy": 3270,
      "PiÅĤka": 3271,
      "zujÄħ": 3272,
      "nictwo": 3273,
      "Ġsyn": 3274,
      "Ġznacznie": 3275,
      "Ġkana": 3276,
      "gia": 3277,
      "ĠCzÄĻ": 3278,
      "Ġrzeczywi": 3279,
      "Ġpopra": 3280,
      "szczenia": 3281,
      "Ġmm": 3282,
      "tkiem": 3283,
      "Ġideal": 3284,
      "Ġen": 3285,
      "Ġponownie": 3286,
      "krzy": 3287,
      "szek": 3288,
      "cin": 3289,
      "dzeÅĦ": 3290,
      "ĠmÃ³gÅĤ": 3291,
      "lno": 3292,
      "Ġczasem": 3293,
      "raw": 3294,
      "ĠAleks": 3295,
      "Ġpacje": 3296,
      "Ġoprac": 3297,
      "id": 3298,
      "bym": 3299,
      "ĠZwiÄħz": 3300,
      "Ġtow": 3301,
      "Ġnigdy": 3302,
      "ĠByÅĤ": 3303,
      "lami": 3304,
      "Ġtry": 3305,
      "ĠGdaÅĦ": 3306,
      "Ġstanu": 3307,
      "Ġkonsu": 3308,
      "woje": 3309,
      "Ġsezonie": 3310,
      "Ġgwia": 3311,
      "OD": 3312,
      "....": 3313,
      "ĠÄĩ": 3314,
      "Ġwra": 3315,
      "stka": 3316,
      "ÑĢ": 3317,
      "Ġfra": 3318,
      "ĠQ": 3319,
      "ĠzaleÅ¼": 3320,
      "strzy": 3321,
      "gno": 3322,
      "Ġcent": 3323,
      "Ġapli": 3324,
      "dom": 3325,
      "Ġdr": 3326,
      "car": 3327,
      "zem": 3328,
      "waÅĤa": 3329,
      "Ġzostanie": 3330,
      "ĠurzÄĻ": 3331,
      "Ġzaczyna": 3332,
      "ĠukoÅĦ": 3333,
      "orÄħ": 3334,
      "Ġtermi": 3335,
      "cio": 3336,
      "ĠOrder": 3337,
      "Ġnieu": 3338,
      "miÄħ": 3339,
      "Ġelektry": 3340,
      "nim": 3341,
      "ĠKaro": 3342,
      "towych": 3343,
      "Ġhrab": 3344,
      "ĠâĢľ": 3345,
      "del": 3346,
      "ÅĤaszcza": 3347,
      "Ġzbyt": 3348,
      "ĠFo": 3349,
      "Å¼d": 3350,
      "lika": 3351,
      "ĠzrobiÄĩ": 3352,
      "ĠwyÅĤÄħcznie": 3353,
      "Ġpowy": 3354,
      "ÅĤek": 3355,
      "owskiego": 3356,
      "ĠCza": 3357,
      "ĠMon": 3358,
      "AM": 3359,
      "Ġrobo": 3360,
      ".:": 3361,
      "ĠmyÅĽli": 3362,
      "PiÅĤkarze": 3363,
      "bil": 3364,
      "Ġszkole": 3365,
      "Ġche": 3366,
      "ĠPoli": 3367,
      "ciÅĤ": 3368,
      "owiÄħza": 3369,
      "Ġpoje": 3370,
      "Ġkierunku": 3371,
      "Ġodpowiada": 3372,
      "ĠTwoje": 3373,
      "Ġproduk": 3374,
      "legÅĤoÅĽci": 3375,
      "Ġnazwa": 3376,
      "mp": 3377,
      "Ġgu": 3378,
      "pospolitej": 3379,
      "ĠbezpoÅĽredni": 3380,
      "Ġurodzeni": 3381,
      "Ġprzypo": 3382,
      "Ġwersji": 3383,
      "ĠtytuÅĤ": 3384,
      "Ġwykorzysty": 3385,
      "cyjnym": 3386,
      "ĠMan": 3387,
      "kwi": 3388,
      "czeniem": 3389,
      "lon": 3390,
      "Ġorganizacji": 3391,
      "moÅĽci": 3392,
      "Ġpolskiej": 3393,
      "ĠzamÃ³wie": 3394,
      "krotnie": 3395,
      "Åºnie": 3396,
      "Ġodwie": 3397,
      "rob": 3398,
      "Ġgodzin": 3399,
      "licza": 3400,
      "owcy": 3401,
      "Ġnar": 3402,
      "Ġoto": 3403,
      "Ġpart": 3404,
      "Ġkompozy": 3405,
      "ĠbÄħdÅº": 3406,
      "Ġboha": 3407,
      "ĠuÅ¼ywa": 3408,
      "ĠwewnÄĻtrz": 3409,
      "jaw": 3410,
      "towany": 3411,
      "biu": 3412,
      "stki": 3413,
      "Ġimpre": 3414,
      "zowane": 3415,
      "Ġwspar": 3416,
      "fie": 3417,
      "Ġinwesty": 3418,
      "Ġocze": 3419,
      "Ġpochodzi": 3420,
      "Ġtyle": 3421,
      "Ġreli": 3422,
      "ĠwÅĤÄħ": 3423,
      "Ġstaro": 3424,
      "ĠChi": 3425,
      "Ġowo": 3426,
      "Ġbrak": 3427,
      "Ġnowoczes": 3428,
      "ĠPiotr": 3429,
      "Ġczeka": 3430,
      "Ġoficja": 3431,
      "Ġtea": 3432,
      "Å¼nej": 3433,
      "Ġgwaran": 3434,
      "Ġwier": 3435,
      "ĠotrzymaÅĤ": 3436,
      "ĠcaÅĤej": 3437,
      "ĠCon": 3438,
      "ĠFrancji": 3439,
      "Ġnajmniej": 3440,
      "pienia": 3441,
      "Ġzagro": 3442,
      "ÃŃ": 3443,
      "pach": 3444,
      "szyÄĩ": 3445,
      "IN": 3446,
      "tnej": 3447,
      "SZ": 3448,
      "ĠMistrzo": 3449,
      "Ġzmienia": 3450,
      "ĠRzeczy": 3451,
      "mienie": 3452,
      "Ar": 3453,
      "dnego": 3454,
      "ill": 3455,
      "dyn": 3456,
      "ĠreÅ¼yser": 3457,
      "Ġanali": 3458,
      "Ġzbior": 3459,
      "waÅĤy": 3460,
      "gla": 3461,
      "Ġkonty": 3462,
      "Ġkolei": 3463,
      "Ġwypad": 3464,
      "ÅĤach": 3465,
      "Ġzwo": 3466,
      "ĠniÄħ": 3467,
      "trum": 3468,
      "ĠLon": 3469,
      "ĠOs": 3470,
      "Ġrozwija": 3471,
      "mula": 3472,
      "Ġdobry": 3473,
      "rÃ³b": 3474,
      "orys": 3475,
      "Äħd": 3476,
      "Ġprogramu": 3477,
      "ĠzdjÄĻcia": 3478,
      "Ġoczy": 3479,
      "cyjnie": 3480,
      "kor": 3481,
      "dziÅĤa": 3482,
      "ĠcÃ³r": 3483,
      "owca": 3484,
      "ĠstanowiÄħ": 3485,
      "lta": 3486,
      "ĠCy": 3487,
      "ĠznaleÅºÄĩ": 3488,
      "tual": 3489,
      "ĠSch": 3490,
      "liÄĩ": 3491,
      "wek": 3492,
      "Ġile": 3493,
      "Ġcharakter": 3494,
      "umer": 3495,
      "ĠTur": 3496,
      "ĠmieÅĽcie": 3497,
      "Ġkobiet": 3498,
      "ght": 3499,
      "Ġpolska": 3500,
      "ĠspÄĻ": 3501,
      "Ġminut": 3502,
      "Ġutrzyma": 3503,
      "Ġnieco": 3504,
      "Ġdniu": 3505,
      "Ġskute": 3506,
      "piÄĩ": 3507,
      "Ġruchu": 3508,
      "onor": 3509,
      "Ġszczy": 3510,
      "ciaÅ¼": 3511,
      "ĠkaÅ¼dej": 3512,
      "ĠmÅĤodzie": 3513,
      "lepiej": 3514,
      "ĠwpÅĤyw": 3515,
      "ĠÅģa": 3516,
      "stÄĻpnie": 3517,
      "ĠrolÄĻ": 3518,
      "sÅĤy": 3519,
      "ĠInstytu": 3520,
      "ĠdÅº": 3521,
      "ecnie": 3522,
      "ĠIz": 3523,
      "Ġpapie": 3524,
      "ÅĦca": 3525,
      "ĠKul": 3526,
      "peÅĤnie": 3527,
      "Ġpochodzenia": 3528,
      "ĠdziaÅĤalnoÅĽÄĩ": 3529,
      "ĠpostÄĻp": 3530,
      "Ġsamego": 3531,
      "ĠDi": 3532,
      "grywa": 3533,
      "Ġzatru": 3534,
      "lozo": 3535,
      "Ġspowodowa": 3536,
      "ĠHenry": 3537,
      "Ġpowa": 3538,
      "Ġdobra": 3539,
      "Ra": 3540,
      "The": 3541,
      "ĠmiejscowoÅĽÄĩ": 3542,
      "Ġzmniej": 3543,
      "Ġturysty": 3544,
      "ĠrÃ³Å¼ne": 3545,
      "ĠPÃ³ÅĤ": 3546,
      "ĠGro": 3547,
      "Ġstre": 3548,
      "Ġjedna": 3549,
      "ĠMiÄĻdzy": 3550,
      "ning": 3551,
      "Ġpracu": 3552,
      "Me": 3553,
      "Ġemi": 3554,
      "Ta": 3555,
      "ĠKrakowie": 3556,
      "Ġpolega": 3557,
      "Ġbiz": 3558,
      "Ġhe": 3559,
      "nera": 3560,
      "ĠZÅĤo": 3561,
      "ĠnajczÄĻÅĽciej": 3562,
      "tz": 3563,
      "ĠRzeczypospolitej": 3564,
      "klu": 3565,
      "CZ": 3566,
      "wienie": 3567,
      "zwa": 3568,
      "Ġludz": 3569,
      "Ġumowy": 3570,
      "Ġ+": 3571,
      "lor": 3572,
      "Le": 3573,
      "fy": 3574,
      "Ġponi": 3575,
      "ciÄħga": 3576,
      "szty": 3577,
      "Ġzja": 3578,
      "ĠokreÅĽla": 3579,
      "dowych": 3580,
      "dzono": 3581,
      "ĠporÃ³w": 3582,
      "kowania": 3583,
      "ĠEd": 3584,
      "ÅĦczy": 3585,
      "dzeniem": 3586,
      "Ġwysta": 3587,
      "Ġnowy": 3588,
      "fry": 3589,
      "Ġprzyro": 3590,
      "Ġjestem": 3591,
      "ĠWin": 3592,
      "Ġodbywa": 3593,
      "styczne": 3594,
      "choty": 3595,
      "ÅĽwiet": 3596,
      "ower": 3597,
      "wnÄħtrz": 3598,
      "Ġdziecka": 3599,
      "ĠSzy": 3600,
      "ĠniektÃ³rych": 3601,
      "Ġchwili": 3602,
      "ĠmaÅĤo": 3603,
      "chowy": 3604,
      "jnych": 3605,
      "iar": 3606,
      "ĠskÅĤadni": 3607,
      "ĠIV": 3608,
      "Ġprawdopo": 3609,
      "towane": 3610,
      "Ġgrup": 3611,
      "Ġnowego": 3612,
      "ĠtrochÄĻ": 3613,
      "miec": 3614,
      "zÄĻ": 3615,
      "Ġtyp": 3616,
      "gier": 3617,
      "mos": 3618,
      "Ġpotrafi": 3619,
      "lerii": 3620,
      ");": 3621,
      "Ġsukce": 3622,
      "ĠwiÄĻkszoÅĽÄĩ": 3623,
      "Ġtrafi": 3624,
      "ĠVi": 3625,
      "niec": 3626,
      "ĠTar": 3627,
      "zacjÄĻ": 3628,
      "ĠwzglÄĻdem": 3629,
      "ĠKi": 3630,
      "szto": 3631,
      "Ġinstytu": 3632,
      "Ġcentrum": 3633,
      "ĠpoÅĤoÅ¼ona": 3634,
      "Ġmln": 3635,
      "tnego": 3636,
      "ĠGÅĤÃ³w": 3637,
      "ĠskÃ³ry": 3638,
      "Ġprzetwarza": 3639,
      "iaj": 3640,
      "Ġcodzien": 3641,
      "Mie": 3642,
      "owla": 3643,
      "ĠPodczas": 3644,
      "ĠprowadzÄħ": 3645,
      "ĠOl": 3646,
      "ĠSej": 3647,
      "lum": 3648,
      "skiem": 3649,
      "Ġlepiej": 3650,
      "Ġadres": 3651,
      "Ġkolejne": 3652,
      "ĠprÄĻ": 3653,
      "Åºni": 3654,
      "ĠDob": 3655,
      "Ġgmina": 3656,
      "Ġchi": 3657,
      "gre": 3658,
      "rzego": 3659,
      "ĠsÅĤy": 3660,
      "kta": 3661,
      "Ġwysp": 3662,
      "ĠzwÅĤaszcza": 3663,
      "dowe": 3664,
      "wolu": 3665,
      "Ġgenera": 3666,
      "Ġproces": 3667,
      "nce": 3668,
      "Ġpobli": 3669,
      "gach": 3670,
      "ĠposzczegÃ³l": 3671,
      "ĠTowarzy": 3672,
      "Ġart": 3673,
      "Ġmis": 3674,
      "Ġbibli": 3675,
      "ciorys": 3676,
      "godnie": 3677,
      "ĠKaÅ¼": 3678,
      "Ġust": 3679,
      "Ba": 3680,
      "ciele": 3681,
      "Ġkontra": 3682,
      "Ġpolskiego": 3683,
      "dor": 3684,
      "ĠumoÅ¼liwia": 3685,
      "Ġzabu": 3686,
      "Ġedu": 3687,
      "zn": 3688,
      "Ġuczni": 3689,
      "rzyÅĤ": 3690,
      "Ġkryty": 3691,
      "widÅĤ": 3692,
      "Ġdem": 3693,
      "Ġstron": 3694,
      "rzeÅĽci": 3695,
      "ÅĽle": 3696,
      "torium": 3697,
      "ĠskÃ³": 3698,
      "ĠToma": 3699,
      "towania": 3700,
      "ĠStra": 3701,
      "Ġbran": 3702,
      "ĠÅ¼yciu": 3703,
      "Ġludzie": 3704,
      "Ġoddzia": 3705,
      "Ġwyj": 3706,
      "PR": 3707,
      "rzym": 3708,
      "ĠKsiÄĻ": 3709,
      "Ġznajdowa": 3710,
      "Ġrazie": 3711,
      "dniego": 3712,
      "letni": 3713,
      "Ġgrze": 3714,
      "Ġwygra": 3715,
      "ĠsprzedaÅ¼y": 3716,
      "rygina": 3717,
      "Ãĵ": 3718,
      "ĠBie": 3719,
      "Ġ|": 3720,
      "Ġwymie": 3721,
      "Ġspecjali": 3722,
      "chem": 3723,
      "Ġpia": 3724,
      "cjami": 3725,
      "twy": 3726,
      "--": 3727,
      "waÅ¼a": 3728,
      "Ġpowinien": 3729,
      "ĠWydaw": 3730,
      "ĠPolskiej": 3731,
      "ĠwspÃ³ÅĤpracy": 3732,
      "ĠPuch": 3733,
      "jny": 3734,
      "ĠstronÄĻ": 3735,
      "pow": 3736,
      "ĠniezbÄĻ": 3737,
      "):": 3738,
      "cznik": 3739,
      "ĠkÄħ": 3740,
      "bal": 3741,
      "Ġtwa": 3742,
      "ĠAmery": 3743,
      "Ġrela": 3744,
      "Ġzabezpie": 3745,
      "Ġ&": 3746,
      "Ġfotogra": 3747,
      "Ġbram": 3748,
      "ĠÅĽwiÄħ": 3749,
      "czyn": 3750,
      "sÅĤugu": 3751,
      "ĠprzyjÄĻ": 3752,
      "ĠÅĤo": 3753,
      "Ġpodo": 3754,
      "Ġmasz": 3755,
      "Ġziemi": 3756,
      "zimie": 3757,
      "ĠFranci": 3758,
      "ĠjeÅ¼eli": 3759,
      "ĠAkade": 3760,
      "ĠDoda": 3761,
      "nicja": 3762,
      "ĠStanisÅĤaw": 3763,
      "Å»yciorys": 3764,
      "Ġnadzie": 3765,
      "Ġpomie": 3766,
      "rzeÅĽcija": 3767,
      "Ġrealizacji": 3768,
      "Sa": 3769,
      "Ġryzy": 3770,
      "trzymy": 3771,
      "Ġata": 3772,
      "Ġpoe": 3773,
      "gaÅ¼": 3774,
      "ownicy": 3775,
      "ĠbÅĤÄĻ": 3776,
      "ĠnarzÄĻ": 3777,
      "peÅĤnia": 3778,
      "Ġporo": 3779,
      "niami": 3780,
      "Ġczerwo": 3781,
      "ĠRP": 3782,
      "ĠAnto": 3783,
      "glÄħd": 3784,
      "Ġzorgani": 3785,
      "niesio": 3786,
      "JeÅĽli": 3787,
      "undu": 3788,
      "ĠDlatego": 3789,
      "Ã³Å¼": 3790,
      "Ġprzedstawia": 3791,
      "Ġelektroni": 3792,
      "km": 3793,
      "ĠÅĤy": 3794,
      "Ġuni": 3795,
      "Ġwybo": 3796,
      "ĠpÄĻ": 3797,
      "inÄĻ": 3798,
      "Ġdoprowa": 3799,
      "Ġchyba": 3800,
      "isa": 3801,
      "rÃ³ciÅĤ": 3802,
      "ĠmaÅĤ": 3803,
      "Ġsposob": 3804,
      "ĠpeÅĤni": 3805,
      "Ġformie": 3806,
      "Ã¤": 3807,
      "turze": 3808,
      "Ġpewno": 3809,
      "ĠBan": 3810,
      "Ġprzekaza": 3811,
      "Ġwice": 3812,
      "Kon": 3813,
      "ĠroÅĽlin": 3814,
      "ĠklientÃ³w": 3815,
      "ĠktoÅĽ": 3816,
      "Ġkonkre": 3817,
      "Ġszla": 3818,
      "Ġstan": 3819,
      "dnym": 3820,
      "kÅĤady": 3821,
      "Ġpodkre": 3822,
      "tus": 3823,
      "gn": 3824,
      "Ġprzewo": 3825,
      "ĠchÄĻ": 3826,
      "Ġnoc": 3827,
      "ĠmiaÅĤy": 3828,
      "ĠumiejÄĻ": 3829,
      "Ġkwest": 3830,
      "lus": 3831,
      "Ġrozu": 3832,
      "towej": 3833,
      "iej": 3834,
      "kowaÄĩ": 3835,
      "Ġpokry": 3836,
      "weÅĤ": 3837,
      "Ġpozycji": 3838,
      "ĠKor": 3839,
      "Ġosoba": 3840,
      "ĠpochodzÄħ": 3841,
      "Ġpojawia": 3842,
      "Ġserii": 3843,
      "rad": 3844,
      "Ġprofesjona": 3845,
      "Ġbroni": 3846,
      "ĠPonad": 3847,
      "rusza": 3848,
      "ĠRober": 3849,
      "ĠTea": 3850,
      "ĠAndrzej": 3851,
      "ĠCzer": 3852,
      "Ġliczba": 3853,
      "ĠZosta": 3854,
      "Ġnadal": 3855,
      "Ġvon": 3856,
      "Ñģ": 3857,
      "rzuca": 3858,
      "ĠZjednoczonych": 3859,
      "Ġwyna": 3860,
      "mail": 3861,
      "Ġtwier": 3862,
      "ĠSh": 3863,
      "Ġpoziom": 3864,
      "Å¼ek": 3865,
      "ley": 3866,
      "Ġczo": 3867,
      "ine": 3868,
      "ĠudaÅĤo": 3869,
      "landii": 3870,
      "Ġpsycho": 3871,
      "Ġfan": 3872,
      "ĠFil": 3873,
      "okie": 3874,
      "kowego": 3875,
      "ĠMaria": 3876,
      "jÄħcymi": 3877,
      "Ġdaje": 3878,
      "ĠwspÃ³ÅĤczes": 3879,
      "Ġare": 3880,
      "Ġucie": 3881,
      "ĠusÅĤugi": 3882,
      "Ġsymbo": 3883,
      "Ġdziennika": 3884,
      "ĠzdobyÅĤ": 3885,
      "Ð¾Ð": 3886,
      "CH": 3887,
      "ÑĤ": 3888,
      "Ġustawy": 3889,
      "ĠurzÄħdzenia": 3890,
      "ĠSza": 3891,
      "stych": 3892,
      "ctwem": 3893,
      "kierowa": 3894,
      "tkÄĻ": 3895,
      "Ġzaa": 3896,
      "Ġtelewizyj": 3897,
      "Ġpomaga": 3898,
      "Ġdziecko": 3899,
      "ĠwiÄħ": 3900,
      "Ġkorzy": 3901,
      "syÅĤa": 3902,
      "ĠÅĽrodkÃ³w": 3903,
      "mujÄħ": 3904,
      "Ġprzesz": 3905,
      "Ġkolor": 3906,
      "ĠCentrum": 3907,
      "Ġoku": 3908,
      "Ġrozgry": 3909,
      "Ġprzeciwko": 3910,
      "Ġdoskona": 3911,
      "Ġdrodze": 3912,
      "Ġrezer": 3913,
      "dnej": 3914,
      "gazy": 3915,
      "Ġjas": 3916,
      "ÅĽciu": 3917,
      "noszÄħ": 3918,
      "Ġpromo": 3919,
      "www": 3920,
      "OL": 3921,
      "ĠzostaÄĩ": 3922,
      "ĠdziaÅĤaÅĦ": 3923,
      "strowa": 3924,
      "dzanie": 3925,
      "ĠOsta": 3926,
      "ĠkrÄĻ": 3927,
      "Ġwspiera": 3928,
      "AmerykaÅĦ": 3929,
      "ws": 3930,
      "ĠbadaÅĦ": 3931,
      "logiczne": 3932,
      "praszamy": 3933,
      "ĠniezaleÅ¼": 3934,
      "lwen": 3935,
      "Pierw": 3936,
      "lonych": 3937,
      "Ġbudowa": 3938,
      "Ġx": 3939,
      "bsolwen": 3940,
      "jskim": 3941,
      "ĠKazimie": 3942,
      "ĠDru": 3943,
      "ĠjÄĻzyka": 3944,
      "Ġfirma": 3945,
      "Ġstuden": 3946,
      "Ġmimo": 3947,
      "Ġzagrani": 3948,
      "ĠÅļwiata": 3949,
      "ĠPer": 3950,
      "ĠPaÅĦstw": 3951,
      "Ġkapita": 3952,
      "zowaÄĩ": 3953,
      "usa": 3954,
      "ĠHer": 3955,
      "Ã³dz": 3956,
      "zdu": 3957,
      "ĠÅĽpie": 3958,
      "Ġoj": 3959,
      "Ġkor": 3960,
      "AL": 3961,
      "ĠdotyczÄħce": 3962,
      "Ġokazji": 3963,
      "mes": 3964,
      "mieniu": 3965,
      "ĠtworzÄħ": 3966,
      "ĠTen": 3967,
      "Ġkwo": 3968,
      "Ġskar": 3969,
      "nowie": 3970,
      "Ġam": 3971,
      "Ġgita": 3972,
      "ĠpracownikÃ³w": 3973,
      "ĠpoÅĤowie": 3974,
      "ĠMary": 3975,
      "Ga": 3976,
      "grze": 3977,
      "ĠBryta": 3978,
      "Ġeurope": 3979,
      "ĠiloÅĽci": 3980,
      "Ġprof": 3981,
      "pierw": 3982,
      "Ġmocy": 3983,
      "Ġtakiego": 3984,
      "ÅĤku": 3985,
      "ĠnazwÄĻ": 3986,
      "Ã³sÅĤ": 3987,
      "Ġoba": 3988,
      "Ġmechani": 3989,
      "Ġszpita": 3990,
      "iÄĩ": 3991,
      "tychczas": 3992,
      "Ġdrogi": 3993,
      "vo": 3994,
      "ĠWÄĻ": 3995,
      "By": 3996,
      "fina": 3997,
      "ĠJeÅ¼eli": 3998,
      "ksyma": 3999,
      "Ġbada": 4000,
      "Ġakcji": 4001,
      "Ġ:)": 4002,
      "Ġrza": 4003,
      "cyjnÄħ": 4004,
      "lizacji": 4005,
      "ĠwaÅ¼ne": 4006,
      "fon": 4007,
      "ĠmiesiÄĻcy": 4008,
      "Ġszere": 4009,
      "Mar": 4010,
      "Ġprzeka": 4011,
      "groma": 4012,
      "Ġwyro": 4013,
      "dale": 4014,
      "ĠpowoÅĤa": 4015,
      "zwyczaj": 4016,
      "Ġlekko": 4017,
      "Ġnimi": 4018,
      "Ġpozwoli": 4019,
      "ciÄħÅ¼": 4020,
      "gÃ³ÅĤ": 4021,
      "kowanie": 4022,
      "Ġkomputer": 4023,
      "ĠwystÄĻpuje": 4024,
      "ÅĽmie": 4025,
      "Ġprzemy": 4026,
      "Fil": 4027,
      "Ġnasz": 4028,
      "Ġprzekona": 4029,
      "Ty": 4030,
      "Sy": 4031,
      "gne": 4032,
      "Ġfilmu": 4033,
      "ĠCzar": 4034,
      "stria": 4035,
      "ĠTh": 4036,
      "Ġstudia": 4037,
      "Ġcmenta": 4038,
      "ĠpoÅĤ": 4039,
      "imna": 4040,
      "Ġwalki": 4041,
      "Ġniemiecki": 4042,
      "Ġuch": 4043,
      "wiÅĤ": 4044,
      "Ġpremie": 4045,
      "rÃ³ciÄĩ": 4046,
      "Ġzwykle": 4047,
      "Ġogro": 4048,
      "tycznych": 4049,
      "str": 4050,
      "ĠprÃ³b": 4051,
      "ĠkrÃ³l": 4052,
      "ĠzdjÄĻ": 4053,
      "Au": 4054,
      "waniu": 4055,
      "ĠKraj": 4056,
      "derem": 4057,
      "Ġistnieje": 4058,
      "ĠpodrÃ³Å¼": 4059,
      "biÃ³r": 4060,
      "zny": 4061,
      "mist": 4062,
      "czÄħcy": 4063,
      "Ġpierwszego": 4064,
      "Ġorygina": 4065,
      "ĠkoÅĽcioÅĤa": 4066,
      "ĠrzÄħd": 4067,
      "ĠkoÅĽciÃ³ÅĤ": 4068,
      "Ġprodukty": 4069,
      "ĠjakÄħ": 4070,
      "ĠprzeÅĤo": 4071,
      "Ġczwar": 4072,
      "Ġstudi": 4073,
      "lot": 4074,
      "ĠcaÅĤym": 4075,
      "Ġnumer": 4076,
      "ĠfunkcjÄĻ": 4077,
      "Ġwybiera": 4078,
      "Ġtakim": 4079,
      "Ġprzyjem": 4080,
      "Ġjakim": 4081,
      "ĠwiÄĻkszoÅĽci": 4082,
      "Ġinsta": 4083,
      "ĠRi": 4084,
      "dali": 4085,
      "ĠbezpieczeÅĦstwa": 4086,
      "mian": 4087,
      "ĠcaÅĤego": 4088,
      "Ġpotrzeby": 4089,
      "tysty": 4090,
      "Ġcywi": 4091,
      "tnym": 4092,
      "ĠoczywiÅĽcie": 4093,
      "Ġkolejnych": 4094,
      "Ġzao": 4095,
      "Ġenergii": 4096,
      "Ġzrobi": 4097,
      "nice": 4098,
      "Ġmas": 4099,
      "Ġodzna": 4100,
      "Ġks": 4101,
      "prawy": 4102,
      "Ġwizy": 4103,
      "Ġskorzysta": 4104,
      "Ġniedo": 4105,
      "ĠÃ": 4106,
      "ĠzgÅĤo": 4107,
      "ĠtysiÄĻcy": 4108,
      "âĢ¢": 4109,
      "szczenie": 4110,
      "wang": 4111,
      "Ġpodpisa": 4112,
      "Ġkultury": 4113,
      "pisÃ³w": 4114,
      "Ġochrony": 4115,
      "zje": 4116,
      "ciÄħg": 4117,
      "Ġtrans": 4118,
      "ĠgoÅĽci": 4119,
      "Ġcztery": 4120,
      "Roz": 4121,
      "Ġwojnie": 4122,
      "dzonych": 4123,
      "Ġkwia": 4124,
      "Ġefe": 4125,
      "Ġubezpie": 4126,
      "Ġtakiej": 4127,
      "Ġkategorii": 4128,
      "ling": 4129,
      "Ġwybu": 4130,
      "wzglÄĻ": 4131,
      "czyli": 4132,
      "dyda": 4133,
      "die": 4134,
      "ĠrozwÃ³j": 4135,
      "Ġpas": 4136,
      "Ġsia": 4137,
      "Ġzdrowia": 4138,
      "Ġpierwszych": 4139,
      "Ġpowszech": 4140,
      "ĠPaÅĦstwa": 4141,
      "Ġwskaza": 4142,
      "Ġintere": 4143,
      "ĠMuzeum": 4144,
      "kowany": 4145,
      "wansowa": 4146,
      "Ġhote": 4147,
      "port": 4148,
      "lety": 4149,
      "ĠEuropie": 4150,
      "Ġrzym": 4151,
      "Ġuza": 4152,
      "puÅĽci": 4153,
      "raj": 4154,
      "Ġulicy": 4155,
      "Äĺ": 4156,
      "liny": 4157,
      "Ġmodel": 4158,
      "towanie": 4159,
      "Ġfunkcjon": 4160,
      "ĠmÅĤody": 4161,
      "ĠWoje": 4162,
      "Ġfar": 4163,
      "Ġzwro": 4164,
      "ĠgÃ³": 4165,
      "tacja": 4166,
      "Ġtor": 4167,
      "king": 4168,
      "ĠTym": 4169,
      "Ġinten": 4170,
      "Ġnagra": 4171,
      "Ġparafii": 4172,
      "Ġuszko": 4173,
      "ris": 4174,
      "Ġoczeki": 4175,
      "Å¼eniu": 4176,
      "ĠWol": 4177,
      "Ġfilmy": 4178,
      "ĠNastÄĻpnie": 4179,
      "Ġwszyscy": 4180,
      "Å¼er": 4181,
      "Ġis": 4182,
      "Ġplane": 4183,
      "ĠÅ¼ydow": 4184,
      "Å¼ne": 4185,
      "ĠpiÄħ": 4186,
      "War": 4187,
      "Ġkobiety": 4188,
      "Ġstylu": 4189,
      "ĠopÅĤa": 4190,
      "Ġznajo": 4191,
      "ĠmoÅ¼liwe": 4192,
      "spe": 4193,
      "ps": 4194,
      "pod": 4195,
      "Ġturniej": 4196,
      "ĠStro": 4197,
      "nder": 4198,
      "Dzie": 4199,
      "tencja": 4200,
      "Ġroze": 4201,
      "Ġwarsza": 4202,
      "Dla": 4203,
      "Ġczyta": 4204,
      "Ġstrona": 4205,
      "Ġzmian": 4206,
      "owicz": 4207,
      "Ġtworzy": 4208,
      "szymi": 4209,
      "ĠBel": 4210,
      "ĠJohn": 4211,
      "towarzy": 4212,
      "Ġobywa": 4213,
      "Ġpoziomie": 4214,
      "ĠKrakÃ³w": 4215,
      "giel": 4216,
      "ĠtreÅĽci": 4217,
      "ĠksiÄħÅ¼ki": 4218,
      "Ġzob": 4219,
      "Ġbudynku": 4220,
      "Ġpogo": 4221,
      "Ġniemal": 4222,
      "ĠRzy": 4223,
      "ĠWarto": 4224,
      "ĠÅĤatwo": 4225,
      "Ġfilozo": 4226,
      "ĠmiaÅĤo": 4227,
      "Ġprace": 4228,
      "Ġode": 4229,
      "prawia": 4230,
      "tnÄħ": 4231,
      "ĠTi": 4232,
      "Ġhandl": 4233,
      "ham": 4234,
      "rus": 4235,
      "Ġolimpi": 4236,
      "zwo": 4237,
      "Ġgrafi": 4238,
      "ĠAdam": 4239,
      "ĠEn": 4240,
      "nÄĻÅĤa": 4241,
      "Ġemo": 4242,
      "Ġsamodzie": 4243,
      "ĠJÃ³zef": 4244,
      "ĠÅĽci": 4245,
      "deo": 4246,
      "ĠTrze": 4247,
      "Ġwiem": 4248,
      "cone": 4249,
      "ĠstaÅĤ": 4250,
      "Ġmeczu": 4251,
      "Ġzatem": 4252,
      "Ġatrak": 4253,
      "ĠMÅĤo": 4254,
      "Ġkata": 4255,
      "ĠpoÅĤu": 4256,
      "wanych": 4257,
      "ĠnaleÅ¼aÅĤa": 4258,
      "ĠgÅĤÄĻbo": 4259,
      "AS": 4260,
      "ĠPonadto": 4261,
      "Ġalbum": 4262,
      "nnych": 4263,
      "nawia": 4264,
      "ĠWÅĤady": 4265,
      "ĠTV": 4266,
      "ĠPary": 4267,
      "Ġgre": 4268,
      "Ġczemu": 4269,
      "tywy": 4270,
      "ĠKlie": 4271,
      "ÅĤeÅĽ": 4272,
      "ĠWedÅĤug": 4273,
      "ĠdÅĤugoÅĽci": 4274,
      "Ġpostanowi": 4275,
      "strzega": 4276,
      "ĠrozpoczÄħÅĤ": 4277,
      "Ġitp": 4278,
      "ĠpieniÄĻ": 4279,
      "ĠKrzyszto": 4280,
      "Ġupraw": 4281,
      "SR": 4282,
      "ĠWielkiej": 4283,
      "mowaÅĤ": 4284,
      "Ġoferty": 4285,
      "spa": 4286,
      "Bo": 4287,
      "Ġbrze": 4288,
      "Ġspad": 4289,
      "las": 4290,
      "krÃ³t": 4291,
      "ĠÄĩwi": 4292,
      "ĠkomÃ³r": 4293,
      "Ġmagazy": 4294,
      "Ġrozpozna": 4295,
      "ĠWs": 4296,
      "wajÄħ": 4297,
      "ĠOp": 4298,
      "Ġmieli": 4299,
      "ĠAkademii": 4300,
      "ktura": 4301,
      "Ġdoj": 4302,
      "mety": 4303,
      "ĠczÅĤonkÃ³w": 4304,
      "Kar": 4305,
      "Ġzaka": 4306,
      "rektor": 4307,
      "wska": 4308,
      "ket": 4309,
      "De": 4310,
      "rodek": 4311,
      "Ġsur": 4312,
      "Ġdzielni": 4313,
      "Ġnu": 4314,
      "Ġwojska": 4315,
      "Ġnazwi": 4316,
      "ĠukÅĤad": 4317,
      "ari": 4318,
      "Ġgrupa": 4319,
      "Ġnajlepiej": 4320,
      "Ġinnym": 4321,
      "Ġnierucho": 4322,
      "deÅĤ": 4323,
      "wÃ³d": 4324,
      "rebr": 4325,
      "Ġwww": 4326,
      "Ġpoczu": 4327,
      "ĠOrderu": 4328,
      "ĠzamkniÄĻ": 4329,
      "Ġpozytyw": 4330,
      "art": 4331,
      "NE": 4332,
      "ĠGi": 4333,
      "dry": 4334,
      "produ": 4335,
      "kura": 4336,
      "ĠUkrai": 4337,
      "ingu": 4338,
      "Ġkrwi": 4339,
      "czer": 4340,
      "ĠKiedy": 4341,
      "ponowa": 4342,
      "terze": 4343,
      "ĠGene": 4344,
      "Ġsztuki": 4345,
      "Ġpomi": 4346,
      "ĠJor": 4347,
      "Ġpoch": 4348,
      "ony": 4349,
      "Ġrea": 4350,
      "ĠWojcie": 4351,
      "ckÄħ": 4352,
      "Ġmomencie": 4353,
      "owali": 4354,
      "ĠosiÄħg": 4355,
      "obra": 4356,
      "nom": 4357,
      "ĠMor": 4358,
      "sch": 4359,
      "ille": 4360,
      "ĠBibli": 4361,
      "Ġsyste": 4362,
      "zowany": 4363,
      "Ġpowro": 4364,
      "ĠWor": 4365,
      "ĠiloÅĽÄĩ": 4366,
      "owska": 4367,
      "Ġdrewnia": 4368,
      "Ġosobowych": 4369,
      "Ġkontakt": 4370,
      "OS": 4371,
      "ĠzaleÅ¼noÅĽci": 4372,
      "Ġzada": 4373,
      "lacja": 4374,
      "ĠciÄħg": 4375,
      "Ġmarki": 4376,
      "gru": 4377,
      "Å¼eÅĦ": 4378,
      "ĠKatowi": 4379,
      "nci": 4380,
      "nda": 4381,
      "Ġtaka": 4382,
      "Ġraczej": 4383,
      "Ġbru": 4384,
      "pii": 4385,
      "rin": 4386,
      "bliÅ¼": 4387,
      "parta": 4388,
      "dzona": 4389,
      "niÃ³sÅĤ": 4390,
      "Ġtka": 4391,
      "kiewicz": 4392,
      "dÅĤa": 4393,
      "cjo": 4394,
      "Ġinnego": 4395,
      "ĠmÄħ": 4396,
      "Äħb": 4397,
      "ĠkrÃ³la": 4398,
      "Ġobsza": 4399,
      "cyk": 4400,
      "czkÄĻ": 4401,
      "cina": 4402,
      "Å¼ynie": 4403,
      "ĠdokÅĤadnie": 4404,
      "Ġpowinna": 4405,
      "jÄħÄĩ": 4406,
      "ĠPÃ³ÅĤnoc": 4407,
      "jsc": 4408,
      "Ġbudowy": 4409,
      "ĠchcÄħ": 4410,
      "nionych": 4411,
      "snÄħ": 4412,
      "ĠÅĤu": 4413,
      "tes": 4414,
      "Ġscena": 4415,
      "Ġfunkcjona": 4416,
      "Ġpowstania": 4417,
      "don": 4418,
      "ĠwziÄĻ": 4419,
      "Ġdw": 4420,
      "Ġpotrzebu": 4421,
      "Ġuz": 4422,
      "czeÅĦstwo": 4423,
      "Ġcer": 4424,
      "owano": 4425,
      "kÅĤadzie": 4426,
      "ĠpoÅĽredni": 4427,
      "Ġdotychczas": 4428,
      "ĠobjÄĻ": 4429,
      "dziaÅĤem": 4430,
      "Ġspotkania": 4431,
      "ĠTade": 4432,
      "ĠHiszpa": 4433,
      "Ġpreze": 4434,
      "Ġster": 4435,
      "cielem": 4436,
      "kowo": 4437,
      "Å¼onych": 4438,
      "ĠzakÅĤada": 4439,
      "woÅĽci": 4440,
      "Ġdzisiej": 4441,
      "wskiej": 4442,
      "fra": 4443,
      "Ġdi": 4444,
      "Ġzrozu": 4445,
      "ĠSÅĤu": 4446,
      "Ġfrag": 4447,
      "Ġopisa": 4448,
      "ĠAleksand": 4449,
      "Å¼ka": 4450,
      "Ġuzu": 4451,
      "kru": 4452,
      "bÃ³w": 4453,
      "cal": 4454,
      "ĠobsÅĤugi": 4455,
      "ĠzupeÅĤnie": 4456,
      "ĠdostÄĻpne": 4457,
      "Ġutra": 4458,
      "mentem": 4459,
      "Ġwygo": 4460,
      "Ġpasa": 4461,
      "Wi": 4462,
      "Ġstu": 4463,
      "brze": 4464,
      "Ġobok": 4465,
      "Ġzabra": 4466,
      "ĠpodÅĤo": 4467,
      "ĠwciÄħÅ¼": 4468,
      "Ġkolejny": 4469,
      "ĠpiÅĤkar": 4470,
      "ĠJej": 4471,
      "ĠwokÃ³ÅĤ": 4472,
      "Ġpropozy": 4473,
      "ĠcaÅĤkowicie": 4474,
      "Ġproc": 4475,
      "Ġaktual": 4476,
      "Ġdyspo": 4477,
      "okra": 4478,
      "ĠNauk": 4479,
      "Ġnowej": 4480,
      "Ġwyd": 4481,
      "Ġcentra": 4482,
      "Ġstoli": 4483,
      "Ġobra": 4484,
      "ĠsiÅĤ": 4485,
      "ĠbezpoÅĽrednio": 4486,
      "Ġtery": 4487,
      "Ġreda": 4488,
      "Ġuroczy": 4489,
      "US": 4490,
      "pieÅĦ": 4491,
      "ĠChry": 4492,
      "stym": 4493,
      "tarz": 4494,
      "lam": 4495,
      "Ġchoroby": 4496,
      "lec": 4497,
      "ĠPrzez": 4498,
      "leÅĦ": 4499,
      "Ġdrz": 4500,
      "ĠKoÅĽcioÅĤa": 4501,
      "dzki": 4502,
      "Ġobja": 4503,
      "Ġliczby": 4504,
      "ĠHan": 4505,
      "ĠcaÅĤÄħ": 4506,
      "ĠGÃ³": 4507,
      "sÄħ": 4508,
      "dera": 4509,
      "ĠmateriaÅĤÃ³w": 4510,
      "ĠEx": 4511,
      "Ġprote": 4512,
      "kin": 4513,
      "sten": 4514,
      "ĠspoÅ¼y": 4515,
      "ĠpieniÄħ": 4516,
      "Ġnazwy": 4517,
      "lis": 4518,
      "Ġalko": 4519,
      "Ġ?": 4520,
      "Ġukaza": 4521,
      "Ġkontynu": 4522,
      "Ġtera": 4523,
      "ĠKrzyÅ¼em": 4524,
      "Ġpokona": 4525,
      "Ġwarunki": 4526,
      "ela": 4527,
      "ĠzwiÄħzanych": 4528,
      "ĠIm": 4529,
      "Ġgodz": 4530,
      "dowego": 4531,
      "Ġmaksyma": 4532,
      "ĠQu": 4533,
      "ĠOfi": 4534,
      "kur": 4535,
      "ĠjÄĻzyku": 4536,
      "Ġwil": 4537,
      "Ġzacho": 4538,
      "Ġdziewczy": 4539,
      "ĠrÃ³wno": 4540,
      "gÅĤa": 4541,
      "Ġina": 4542,
      "ÅĤonek": 4543,
      "Ġzaraz": 4544,
      "Ġhy": 4545,
      "ĠÅ¼Ã³ÅĤ": 4546,
      "ĠjesteÅĽmy": 4547,
      "Ġpotencja": 4548,
      "sor": 4549,
      "ĠdoÅĤÄħ": 4550,
      "ĠpowiedziaÅĤ": 4551,
      "Ġdysku": 4552,
      "Ġwyraz": 4553,
      "Ã³c": 4554,
      "des": 4555,
      "waÅĤo": 4556,
      "ĠosiÄħgniÄĻ": 4557,
      "liÅĤ": 4558,
      "spraw": 4559,
      "Ġsama": 4560,
      "Ġnauki": 4561,
      "Ġonline": 4562,
      "ĠSpe": 4563,
      "dgo": 4564,
      "Ġparla": 4565,
      "Ġmogli": 4566,
      "Ġoni": 4567,
      "Ġwiedzy": 4568,
      "Ġekonomi": 4569,
      "La": 4570,
      "Ġautomaty": 4571,
      "Ġuwagi": 4572,
      "ĠprÄĻd": 4573,
      "Ġwarszta": 4574,
      "Ġskierowa": 4575,
      "Ġkomenta": 4576,
      "skar": 4577,
      "ĠrozwiÄħzania": 4578,
      "Å¼ki": 4579,
      "Ġana": 4580,
      "Ġopis": 4581,
      "IS": 4582,
      "ĠÅĽre": 4583,
      "rzone": 4584,
      "tia": 4585,
      "Ġgroma": 4586,
      "Ġparafia": 4587,
      "chnia": 4588,
      "Ġprzypomina": 4589,
      "Ġjezio": 4590,
      "Ġostatnich": 4591,
      "nel": 4592,
      "Ġur": 4593,
      "org": 4594,
      "Ġniezwykle": 4595,
      "jon": 4596,
      "ĠInd": 4597,
      "liwoÅĽÄĩ": 4598,
      "bija": 4599,
      "jciec": 4600,
      "cony": 4601,
      "ĠObecnie": 4602,
      "Ġrolni": 4603,
      "Ġdocho": 4604,
      "ĠzaleÅ¼y": 4605,
      "Ġorga": 4606,
      "WedÅĤug": 4607,
      "ĪĴ": 4608,
      "czem": 4609,
      "que": 4610,
      "KA": 4611,
      "Ġdwo": 4612,
      "Ġfunkcji": 4613,
      "rÄħz": 4614,
      "Ðº": 4615,
      "ĠRosji": 4616,
      "Ce": 4617,
      "ĠchociaÅ¼": 4618,
      "tniej": 4619,
      "Ġplan": 4620,
      "Ġsprawia": 4621,
      "rzÄħt": 4622,
      "angaÅ¼": 4623,
      "Ġinterne": 4624,
      "Pra": 4625,
      "lnia": 4626,
      "ĠwysÅĤa": 4627,
      "ĠChar": 4628,
      "TA": 4629,
      "ĠKe": 4630,
      "bach": 4631,
      "Ġdowie": 4632,
      "Ġsio": 4633,
      "Ġspoko": 4634,
      "Ġzle": 4635,
      "ĠdziaÅĤanie": 4636,
      "niom": 4637,
      "Ġmikro": 4638,
      "kacje": 4639,
      "Ġproduktu": 4640,
      "ĠOrgani": 4641,
      "Ġmusia": 4642,
      "Ġorze": 4643,
      "Ġgen": 4644,
      "ĠSamo": 4645,
      "turÄĻ": 4646,
      "ĠStowarzy": 4647,
      "Ġkomp": 4648,
      "wan": 4649,
      "Ġgar": 4650,
      "Ġpolskim": 4651,
      "ĠLw": 4652,
      "Ġproblemy": 4653,
      "sion": 4654,
      "kowym": 4655,
      "Ġkampa": 4656,
      "ĠMikoÅĤa": 4657,
      "Ġcookie": 4658,
      "Ġtematy": 4659,
      "tnia": 4660,
      "ther": 4661,
      "mowe": 4662,
      "ĠBro": 4663,
      "Ġmedia": 4664,
      "Ġprzestrzeni": 4665,
      "Ġkonkuren": 4666,
      "Ġokresu": 4667,
      "ĠÅĤÃ³": 4668,
      "ĠWarszawy": 4669,
      "ĠbÄĻdziemy": 4670,
      "mÄħ": 4671,
      "krÃ³tce": 4672,
      "ĠRepubli": 4673,
      "dnienia": 4674,
      "Ġsoli": 4675,
      "ban": 4676,
      "Ġwchodzi": 4677,
      "resz": 4678,
      "Ġbohater": 4679,
      "Ġcier": 4680,
      "linie": 4681,
      "ell": 4682,
      "jna": 4683,
      "Ġpodmio": 4684,
      "Ġcztere": 4685,
      "ĠCzÄĻsto": 4686,
      "Ġpolskie": 4687,
      "ĠKrÃ³le": 4688,
      "rona": 4689,
      "Ġsklep": 4690,
      "ĠNiemiec": 4691,
      "wicza": 4692,
      "ĠoÅĽrod": 4693,
      "Ġhu": 4694,
      "ĠtÄħ": 4695,
      "zowie": 4696,
      "ĠÅ¼oÅĤnierzy": 4697,
      "ĠZwiÄħzku": 4698,
      "Ġkandyda": 4699,
      "Ġzabie": 4700,
      "ĠBoga": 4701,
      "Ġmeta": 4702,
      "ĠCiebie": 4703,
      "Ġdrob": 4704,
      "lip": 4705,
      "ĠmuszÄħ": 4706,
      "Ġopubli": 4707,
      "Ġostatnie": 4708,
      "OM": 4709,
      "Ġpocz": 4710,
      "ĠJerzy": 4711,
      "Ġzab": 4712,
      "ĠelementÃ³w": 4713,
      "Ġcelem": 4714,
      "ĠjakiÅĽ": 4715,
      "tyfika": 4716,
      "Å¼ar": 4717,
      "Ze": 4718,
      "Ġzebra": 4719,
      "ĠMoÅ¼na": 4720,
      "Ġzak": 4721,
      "Ġbudowla": 4722,
      "win": 4723,
      "Ġpowinny": 4724,
      "ĠUÅ¼y": 4725,
      "ĠporÃ³wna": 4726,
      "ĠoglÄħ": 4727,
      "ĠFre": 4728,
      "Ġzasta": 4729,
      "ĠchrzeÅĽcija": 4730,
      "toÅĽci": 4731,
      "Ġteo": 4732,
      "ĠpowstaÅĤa": 4733,
      "wka": 4734,
      "suje": 4735,
      "ward": 4736,
      "ĠÃ³w": 4737,
      "Ġsyna": 4738,
      "ĠwnÄĻ": 4739,
      "ĠdÅĤuÅ¼": 4740,
      "owaniem": 4741,
      "Ġatmos": 4742,
      "ĠwrÄĻ": 4743,
      "oria": 4744,
      "Ġelementy": 4745,
      "mana": 4746,
      "Ġmuzyki": 4747,
      "Ġgodziny": 4748,
      "ĠArmii": 4749,
      "ĠProdu": 4750,
      "ÄĦ": 4751,
      "ex": 4752,
      "Ġznaczenie": 4753,
      "ĠpowstaÅĤ": 4754,
      "ÅĽwiÄĻ": 4755,
      "ĠczÅĤonkiem": 4756,
      "Ġpytanie": 4757,
      "Ġum": 4758,
      "ÅĦcu": 4759,
      "ĠJako": 4760,
      "Ġnorma": 4761,
      "ĠBur": 4762,
      "dziale": 4763,
      "ĠpunktÃ³w": 4764,
      "kÄħd": 4765,
      "Ġucze": 4766,
      "Ġukry": 4767,
      "ĠsÅĤucha": 4768,
      "ĠmÃ³wiÄħ": 4769,
      "Ġklubu": 4770,
      "Ġopty": 4771,
      "und": 4772,
      "Ġpojedyn": 4773,
      "Ġstanowisko": 4774,
      "Wa": 4775,
      "dowania": 4776,
      "ĠczasÃ³w": 4777,
      "Ġblisko": 4778,
      "Ġdodatkowo": 4779,
      "Ã³le": 4780,
      "karz": 4781,
      "piÄħ": 4782,
      "Ġkonsek": 4783,
      "ĠmetrÃ³w": 4784,
      "cam": 4785,
      "rzÄĻdu": 4786,
      "Ġinicja": 4787,
      "ĠpobliÅ¼u": 4788,
      "fli": 4789,
      "Ġosobi": 4790,
      "Ġodpowiedzi": 4791,
      "up": 4792,
      "ĠprawidÅĤ": 4793,
      "ktora": 4794,
      "ĠwziÄħ": 4795,
      "niÄĻcia": 4796,
      "ujÄħ": 4797,
      "Ġserca": 4798,
      "Ġrzad": 4799,
      "Ġunika": 4800,
      "Ġciep": 4801,
      "ĠwybraÄĩ": 4802,
      "Ġbiskup": 4803,
      "Â²": 4804,
      "fr": 4805,
      "Albu": 4806,
      "ÅĽciami": 4807,
      "dowej": 4808,
      "¹rÃ³d": 4809,
      "ĠudostÄĻp": 4810,
      "Ġzbro": 4811,
      "Ġdywi": 4812,
      "Ġchemi": 4813,
      "towego": 4814,
      "Ġopowie": 4815,
      "ĠnajbliÅ¼": 4816,
      "ĠNew": 4817,
      "Ġ=": 4818,
      "ĠduÅ¼Äħ": 4819,
      "Ġtema": 4820,
      "ĠzwierzÄħt": 4821,
      "ĠSam": 4822,
      "Ġsubstan": 4823,
      "miny": 4824,
      "Ġkonferen": 4825,
      "lono": 4826,
      "Ġpierwo": 4827,
      "ĠMiÄĻdzynarod": 4828,
      "tuj": 4829,
      "ðŁ": 4830,
      "NA": 4831,
      "Ġpokaza": 4832,
      "ĠPoÅĤudni": 4833,
      "grafia": 4834,
      "roz": 4835,
      "Ġtrzeci": 4836,
      "dwie": 4837,
      "ÅĤowi": 4838,
      "ĠpewnoÅĽciÄħ": 4839,
      "Ġniewy": 4840,
      "all": 4841,
      "wni": 4842,
      "leni": 4843,
      "ĠwÄħt": 4844,
      "ĠsiÅĤy": 4845,
      "ĠMinister": 4846,
      "Ġwykorzystu": 4847,
      "ĠPoz": 4848,
      "dziÄĻ": 4849,
      "ĠszczÄĻ": 4850,
      "toÅĽÄĩ": 4851,
      "Ġude": 4852,
      "ĠKolej": 4853,
      "terna": 4854,
      "tfor": 4855,
      "Ġprzewi": 4856,
      "Ġpt": 4857,
      "ĠzastÄĻp": 4858,
      "sona": 4859,
      "ot": 4860,
      "Ġwybudowa": 4861,
      "wione": 4862,
      "Ġsamej": 4863,
      "nowany": 4864,
      "Ġpowinno": 4865,
      "ĠposzczegÃ³lnych": 4866,
      "Ġsygna": 4867,
      "rzeÄĩ": 4868,
      "dium": 4869,
      "Ġroli": 4870,
      "ĠzaangaÅ¼": 4871,
      "Ġstopni": 4872,
      "ĠprzeglÄħ": 4873,
      "tÄħd": 4874,
      "Ġposzuki": 4875,
      "lski": 4876,
      "wne": 4877,
      "lecia": 4878,
      "Ġwyco": 4879,
      "tional": 4880,
      "Ġpodobnie": 4881,
      "Ġodw": 4882,
      "Ġdyplo": 4883,
      "SP": 4884,
      "nnej": 4885,
      "ĠBru": 4886,
      "Ġdzisiaj": 4887,
      "ĠchciaÅĤ": 4888,
      "Ġregular": 4889,
      "czyÅĤy": 4890,
      "Ġzbli": 4891,
      "Ġodpor": 4892,
      "Ġprawdopodobnie": 4893,
      "ĠobsÅĤu": 4894,
      "Ġpory": 4895,
      "tkowe": 4896,
      "kaÄĩ": 4897,
      "Ġrodzaj": 4898,
      "rony": 4899,
      "ĠzwierzÄĻ": 4900,
      "dnoÅĽÄĩ": 4901,
      "Ġprodukt": 4902,
      "Ġinny": 4903,
      "cjonu": 4904,
      "Ġartysty": 4905,
      "ĠAm": 4906,
      "ED": 4907,
      "teli": 4908,
      "siÄĩ": 4909,
      "jscy": 4910,
      "ĠukÅĤadu": 4911,
      "leÅ¼y": 4912,
      "Ġklienta": 4913,
      "Å¼eniem": 4914,
      "lome": 4915,
      "czyk": 4916,
      "Ġnadz": 4917,
      "ĠprzecieÅ¼": 4918,
      "Ġrzu": 4919,
      "tematy": 4920,
      "ĠPara": 4921,
      "szone": 4922,
      "ĠjakoÅĽÄĩ": 4923,
      "ĠdoszÅĤo": 4924,
      "Ġbro": 4925,
      "ĠSpraw": 4926,
      "ĠponiÅ¼ej": 4927,
      "Ġpunk": 4928,
      "mnie": 4929,
      "Ġzako": 4930,
      "czyÅĤo": 4931,
      "Ġreligi": 4932,
      "Ġzasady": 4933,
      "rodzenia": 4934,
      "kowaÅĤ": 4935,
      "NI": 4936,
      "ĠCiÄĻ": 4937,
      "ĠWojsk": 4938,
      "ĠOrderem": 4939,
      "ĠCha": 4940,
      "Ġbla": 4941,
      "Jest": 4942,
      "rotnie": 4943,
      "najmniej": 4944,
      "Ġkarie": 4945,
      "Wo": 4946,
      "ĠPri": 4947,
      "ĠnastÄħpi": 4948,
      "ÅĤami": 4949,
      "rowin": 4950,
      "Ġmecz": 4951,
      "gni": 4952,
      "Ġarchite": 4953,
      "Ġwspania": 4954,
      "Ġdelika": 4955,
      "Ġopro": 4956,
      "ĠkoÅĽcie": 4957,
      "AD": 4958,
      "Ġspotyka": 4959,
      "Ġzostaje": 4960,
      "Ġucz": 4961,
      "ĠpÅĤo": 4962,
      "hat": 4963,
      "Ġfakt": 4964,
      "bin": 4965,
      "stoÅĽÄĩ": 4966,
      "Ġosied": 4967,
      "pier": 4968,
      "ĠspeÅĤnia": 4969,
      "Ġmiesza": 4970,
      "ĠKoÅĽciÃ³ÅĤ": 4971,
      "rzeniu": 4972,
      "Ġmle": 4973,
      "Ġner": 4974,
      "Ġlubi": 4975,
      "ĠLubli": 4976,
      "ĠFesti": 4977,
      "Ġdniach": 4978,
      "lian": 4979,
      "ĠwartoÅĽÄĩ": 4980,
      "Ġ;": 4981,
      "ĠSt": 4982,
      "mowaÄĩ": 4983,
      "mas": 4984,
      "Ġreprezenta": 4985,
      "Ġpodda": 4986,
      "Ġceny": 4987,
      "ĠChe": 4988,
      "fini": 4989,
      "stwem": 4990,
      "Ġdoko": 4991,
      "ĠChrystu": 4992,
      "ĠÅ¼adnych": 4993,
      "chen": 4994,
      "dago": 4995,
      "KS": 4996,
      "Ġtr": 4997,
      "Ġzazwyczaj": 4998,
      "ĠÅĽmie": 4999,
      "Ġstrate": 5000,
      "ĠprzemysÅĤ": 5001,
      "ĠEle": 5002,
      "Ġtrener": 5003,
      "nny": 5004,
      "ĠJapo": 5005,
      "ĠÅģodzi": 5006,
      "ĠXVIII": 5007,
      "ĠÅĽle": 5008,
      "Ġefekt": 5009,
      "ĠgÃ³ry": 5010,
      "ÅĤac": 5011,
      "ĠbÅĤo": 5012,
      "zda": 5013,
      "SRR": 5014,
      "ĠumiejÄĻtnoÅĽci": 5015,
      "isk": 5016,
      "kowskiego": 5017,
      "Ġobni": 5018,
      "Ġhar": 5019,
      "ĠKata": 5020,
      "Ġzajmu": 5021,
      "ĠwybÃ³r": 5022,
      "fu": 5023,
      "ĠtakÄħ": 5024,
      "ĠpodrÃ³": 5025,
      "ĠZy": 5026,
      "Ġkola": 5027,
      "czestnicy": 5028,
      "Ġopowiada": 5029,
      "wiu": 5030,
      "stej": 5031,
      "Ġduchow": 5032,
      "jesz": 5033,
      "**": 5034,
      "Ġbibliote": 5035,
      "Ġprzyby": 5036,
      "Przed": 5037,
      "nkiem": 5038,
      "ĠdÅĤugi": 5039,
      "ĠKultury": 5040,
      "Ġnazywa": 5041,
      "tarza": 5042,
      "wskim": 5043,
      "ĠKana": 5044,
      "Ġgi": 5045,
      "rand": 5046,
      "Ġdopa": 5047,
      "Ġjednostki": 5048,
      "berg": 5049,
      "Ġpowiatu": 5050,
      "ĠWis": 5051,
      "ĠsiedzibÄħ": 5052,
      "ĠszczegÃ³ÅĤ": 5053,
      "prawa": 5054,
      "miany": 5055,
      "Ġhiszpa": 5056,
      "Ġklucz": 5057,
      "dnÄħ": 5058,
      "ciÃ³ÅĤ": 5059,
      "Ġuczu": 5060,
      "Ġstopniu": 5061,
      "Ġkomfor": 5062,
      "ĠSze": 5063,
      "Ġjapo": 5064,
      "stwach": 5065,
      "Ġsprawy": 5066,
      "Ġcharakterysty": 5067,
      "nikami": 5068,
      "sbur": 5069,
      "Ġzatrzyma": 5070,
      "Ġruch": 5071,
      "groda": 5072,
      "ĠmÄĻÅ¼czyzn": 5073,
      "Ġpozba": 5074,
      "ĠPolakÃ³w": 5075,
      "dencji": 5076,
      "ĠPor": 5077,
      "Ġkg": 5078,
      "Ġpopraw": 5079,
      "ĠKrzyÅ¼": 5080,
      "ĠproblemÃ³w": 5081,
      "Ġproducen": 5082,
      "Ġzauwa": 5083,
      "ker": 5084,
      "ĠgÅĤowy": 5085,
      "ĠzÅĤotych": 5086,
      "ĠpielÄĻ": 5087,
      "Ġinaczej": 5088,
      "Ġbiznes": 5089,
      "PS": 5090,
      "Ġumiesz": 5091,
      "Ġdoros": 5092,
      "ĠduÅ¼ej": 5093,
      "ĠMos": 5094,
      "dÅĤuÅ¼": 5095,
      "ĠwyÅĽci": 5096,
      "ĠBez": 5097,
      "Ġobli": 5098,
      "Ġciem": 5099,
      "ĠSztu": 5100,
      "Ġnieo": 5101,
      "ĠStanisÅĤawa": 5102,
      "Ġintensyw": 5103,
      "grafi": 5104,
      "ÅĦskÄħ": 5105,
      "stna": 5106,
      "ĠczoÅĤ": 5107,
      "ed": 5108,
      "ĠnapÄĻ": 5109,
      "ĠuczniÃ³w": 5110,
      "kier": 5111,
      "Ġnaro": 5112,
      "Ġgeneral": 5113,
      "ÅĤoru": 5114,
      "ĠPaweÅĤ": 5115,
      "ciar": 5116,
      "Go": 5117,
      "ĠEu": 5118,
      "Ġliczne": 5119,
      "tnoÅĽÄĩ": 5120,
      "dzaÄĩ": 5121,
      "Ġczterech": 5122,
      "ĠplacÃ³w": 5123,
      "ĠzakÅĤad": 5124,
      "dan": 5125,
      "sel": 5126,
      "ĠAnna": 5127,
      "Mia": 5128,
      "Ġmocno": 5129,
      "ĠTomasz": 5130,
      "nis": 5131,
      "Ġbrz": 5132,
      "ĠIs": 5133,
      "Ġwyboru": 5134,
      "wencji": 5135,
      "ĠAt": 5136,
      "Ġinternetowej": 5137,
      "Ġodwo": 5138,
      "ose": 5139,
      "ĠSÅĤo": 5140,
      "Ġwydaje": 5141,
      "int": 5142,
      "Ġtygodni": 5143,
      "ĠpieniÄħdze": 5144,
      "ĠInforma": 5145,
      "ĠmiÅĤoÅĽci": 5146,
      "czech": 5147,
      "Ġinfor": 5148,
      "ĠAby": 5149,
      "Ġzjawi": 5150,
      "metry": 5151,
      "Ġsezonu": 5152,
      "So": 5153,
      "Ġdostarcza": 5154,
      "ĠzÄĻ": 5155,
      "Å¼ÄĻ": 5156,
      "pt": 5157,
      "KI": 5158,
      "Ġsezon": 5159,
      "szony": 5160,
      "tm": 5161,
      "Pre": 5162,
      "doby": 5163,
      "katoli": 5164,
      "Ġdotar": 5165,
      "Ġ...": 5166,
      "Ġwarunkach": 5167,
      "ĠLudwi": 5168,
      "Ġjazdy": 5169,
      "czach": 5170,
      "Ġnami": 5171,
      "dka": 5172,
      "ĠGar": 5173,
      "Ġeduka": 5174,
      "Albumy": 5175,
      "ĠmogÄĻ": 5176,
      "rium": 5177,
      "Ġwyniki": 5178,
      "ĠczÅĤowiek": 5179,
      "ĠzobowiÄħza": 5180,
      "logicznych": 5181,
      "ĠtrÃ³j": 5182,
      "Ġzapy": 5183,
      "kÃ³j": 5184,
      "ĠAugu": 5185,
      "owaÅĤy": 5186,
      "ĠMc": 5187,
      "Ġodpowiednio": 5188,
      "Ġdrugim": 5189,
      "nna": 5190,
      "szÅĤa": 5191,
      "ĠXVI": 5192,
      "ĠUnii": 5193,
      "wajcar": 5194,
      "ĠBrytanii": 5195,
      "mm": 5196,
      "Ġpal": 5197,
      "Or": 5198,
      "Ð»": 5199,
      "Ġbieg": 5200,
      "Ġsami": 5201,
      "ĠludnoÅĽci": 5202,
      "obraz": 5203,
      "Ġagen": 5204,
      "Ġdecyzji": 5205,
      "Ġsch": 5206,
      "stawy": 5207,
      "fan": 5208,
      "ĠWydawnictwo": 5209,
      "Ġzamiast": 5210,
      "Ġnaby": 5211,
      "UR": 5212,
      "Ġth": 5213,
      "sual": 5214,
      "rzony": 5215,
      "ÅĦcÃ³w": 5216,
      "walu": 5217,
      "Ġwydarzenia": 5218,
      "ÅĤonkowie": 5219,
      "Ġhrabstwie": 5220,
      "ĠpierwszÄħ": 5221,
      "Ġstaje": 5222,
      "Ġwro": 5223,
      "skach": 5224,
      "ĠBla": 5225,
      "Ġrado": 5226,
      "ĠzapÅĤa": 5227,
      "Ġwysokiej": 5228,
      "tto": 5229,
      "Ġtrzyma": 5230,
      "dzajÄħ": 5231,
      "Ġprzesta": 5232,
      "dzili": 5233,
      "ĠPoznaniu": 5234,
      "Ġformy": 5235,
      "ĠNiemczech": 5236,
      "Ġziem": 5237,
      "Ġzajmuje": 5238,
      "Ġchcesz": 5239,
      "ujemy": 5240,
      "jmy": 5241,
      "Ġpierwsza": 5242,
      "wieÅĦ": 5243,
      "ĠzajÄħÅĤ": 5244,
      "ĠCol": 5245,
      "Ġobszar": 5246,
      "Ġminu": 5247,
      "ĠzÅĤa": 5248,
      "minu": 5249,
      "Ġrazu": 5250,
      "gres": 5251,
      "jeÅ¼d": 5252,
      "ĠKur": 5253,
      "ĠFer": 5254,
      "Ġdrzwi": 5255,
      "Ġkoszy": 5256,
      "ĠstaÅĤa": 5257,
      "zur": 5258,
      "van": 5259,
      "ĠuÅĤat": 5260,
      "rasta": 5261,
      "miu": 5262,
      "jazd": 5263,
      "rzÄħdu": 5264,
      "tic": 5265,
      "IT": 5266,
      "ĠnaszÄħ": 5267,
      "jnie": 5268,
      "ownie": 5269,
      "ĠbudÅ¼e": 5270,
      "Ġaktorka": 5271,
      "ĠLin": 5272,
      "ĠspoÅĽrÃ³d": 5273,
      "gami": 5274,
      "mieÅĦ": 5275,
      "stre": 5276,
      "ĠKomite": 5277,
      "dzieÅĦ": 5278,
      "ĠJaku": 5279,
      "ĠcaÅĤoÅĽci": 5280,
      "Ġpartner": 5281,
      "Ġfrancuski": 5282,
      "Ġszta": 5283,
      "ĠpiÄĻÄĩ": 5284,
      "Dy": 5285,
      "kowana": 5286,
      "ĠJaro": 5287,
      "kli": 5288,
      "ĠKrzysztof": 5289,
      "ĠurzÄħdzeÅĦ": 5290,
      "Ġmoim": 5291,
      "infor": 5292,
      "rÄĻb": 5293,
      "ogle": 5294,
      "ĠIch": 5295,
      "Ġautobu": 5296,
      "ĠAfry": 5297,
      "sila": 5298,
      "Ġczasach": 5299,
      "Ġbatali": 5300,
      "lla": 5301,
      "tycznej": 5302,
      "Ġnajnow": 5303,
      "ĠPaÅĦstwo": 5304,
      "Ġpartii": 5305,
      "hu": 5306,
      "Ġwycie": 5307,
      "czoÅĽci": 5308,
      "czar": 5309,
      "ĠkrÄħ": 5310,
      "Ġzestaw": 5311,
      "szoÅĽÄĩ": 5312,
      "toria": 5313,
      "ĠSzwe": 5314,
      "ĠSÅĤ": 5315,
      "zju": 5316,
      "bina": 5317,
      "Ġzakresu": 5318,
      "shi": 5319,
      "Ġstacji": 5320,
      "Ġder": 5321,
      "ĠgatunkÃ³w": 5322,
      "Ġzi": 5323,
      "fil": 5324,
      "ĠudziaÅĤu": 5325,
      "Ġlisty": 5326,
      "leria": 5327,
      "Ġzmu": 5328,
      "ĠwÅĤadzy": 5329,
      "Ġbry": 5330,
      "ĠpotÄĻ": 5331,
      "ĠWszystkie": 5332,
      "ĠplikÃ³w": 5333,
      "ĠwystÄħpi": 5334,
      "Ġupo": 5335,
      "ĠpamiÄĻci": 5336,
      "ĠâĪĴ": 5337,
      "rodÄĻ": 5338,
      "Ġwypowie": 5339,
      "ÅĽwietla": 5340,
      "noÅĽ": 5341,
      "Ġtajem": 5342,
      "ÄĻdzie": 5343,
      "ĠzachÄĻ": 5344,
      "kracza": 5345,
      "ĠuwzglÄĻ": 5346,
      "Ġwin": 5347,
      "Ġds": 5348,
      "mb": 5349,
      "ĠjÄĻzyk": 5350,
      "Ġmonta": 5351,
      "Ġporusza": 5352,
      "ĠpowyÅ¼ej": 5353,
      "Ġodzy": 5354,
      "Ġstosunku": 5355,
      "Ġprzechowy": 5356,
      "rabia": 5357,
      "Ġzare": 5358,
      "cyfi": 5359,
      "Ġnocy": 5360,
      "ĠutworÃ³w": 5361,
      "Ġzaga": 5362,
      "ĠMag": 5363,
      "czÄħÄĩ": 5364,
      "ĠZSRR": 5365,
      "dba": 5366,
      "Ġmaszyn": 5367,
      "Ġj": 5368,
      "ĠPubli": 5369,
      "Ġminister": 5370,
      "Ġmodli": 5371,
      "ĠliÅĽcie": 5372,
      "ĠĠĠĠĠĠĠĠ": 5373,
      "ĠDie": 5374,
      "zÄħ": 5375,
      "ĠðŁ": 5376,
      "nkach": 5377,
      "Ġwersja": 5378,
      "Ġprzer": 5379,
      "Ġprezydenta": 5380,
      "Ġkup": 5381,
      "Ġjakich": 5382,
      "ĠPawÅĤa": 5383,
      "Ġkomple": 5384,
      "ys": 5385,
      "dÅĤo": 5386,
      "Ġupa": 5387,
      "ĠzobaczyÄĩ": 5388,
      "tywa": 5389,
      "Ġpojem": 5390,
      "ĠMichaÅĤ": 5391,
      "ĠNowy": 5392,
      "wiony": 5393,
      "Ġnajlepszych": 5394,
      "Ġopo": 5395,
      "Ġtechnologii": 5396,
      "Ġpoprzedni": 5397,
      "ĠNowa": 5398,
      "Ġpowoduje": 5399,
      "Ġstruktu": 5400,
      "ĠRobert": 5401,
      "ĠÅĽrodowiska": 5402,
      "Ġtrudno": 5403,
      "AP": 5404,
      "ĠKali": 5405,
      "Ġofia": 5406,
      "Ġzmieni": 5407,
      "ĠsÅĤuÅ¼by": 5408,
      "ĠimiÄĻ": 5409,
      "Ġurucho": 5410,
      "ĠwidaÄĩ": 5411,
      "Ġwypadku": 5412,
      "ĠSk": 5413,
      "ĠzwiÄĻksza": 5414,
      "Ġwzrost": 5415,
      "lonej": 5416,
      "owskiej": 5417,
      "Ġmetody": 5418,
      "spie": 5419,
      "ĠgorÄħ": 5420,
      "ĠksiÄħÅ¼ÄĻ": 5421,
      "ĠsiÄĻga": 5422,
      "ĠniektÃ³re": 5423,
      "ĠpowieÅĽci": 5424,
      "tujÄħ": 5425,
      "Ġoz": 5426,
      "Ġsuper": 5427,
      "Ġstopnia": 5428,
      "Ġzapozna": 5429,
      "ĠnowÄħ": 5430,
      "gÅĤÄĻ": 5431,
      "Ser": 5432,
      "dle": 5433,
      "mowanie": 5434,
      "Ġkocha": 5435,
      "ĠVa": 5436,
      "ĠszkÃ³ÅĤ": 5437,
      "szem": 5438,
      "Ġprofi": 5439,
      "ĠuÅ¼ytkownikÃ³w": 5440,
      "ĠpowaÅ¼": 5441,
      "ĠmaÅĤÅ¼e": 5442,
      "Ġobserwa": 5443,
      "typ": 5444,
      "tch": 5445,
      "ĠczÄĻÅĽciÄħ": 5446,
      "nau": 5447,
      "mami": 5448,
      "Ġzazna": 5449,
      "serw": 5450,
      "ĠgÄĻ": 5451,
      "ĠszczegÃ³lnoÅĽci": 5452,
      "Ġnazy": 5453,
      "dki": 5454,
      "Ġkosmety": 5455,
      "Tak": 5456,
      "tis": 5457,
      "ĠBoÅ¼e": 5458,
      "ĠJedno": 5459,
      "Ġwywia": 5460,
      "ĠKla": 5461,
      "ĠpowiedzieÄĩ": 5462,
      "Ġobejmuje": 5463,
      "Ġzwyk": 5464,
      "hol": 5465,
      "Ġpodlega": 5466,
      "cku": 5467,
      "Ġwykonania": 5468,
      "dziesiÄħ": 5469,
      "nen": 5470,
      "ĠrodzicÃ³w": 5471,
      "ĠVI": 5472,
      "'s": 5473,
      "ĠMiasta": 5474,
      "wil": 5475,
      "ĠwÅĤasne": 5476,
      "ĠDzi": 5477,
      "Ġzagra": 5478,
      "Ġzaprezen": 5479,
      "myÅĽ": 5480,
      "ĠrzeÅº": 5481,
      "gur": 5482,
      "ĠczynnoÅĽci": 5483,
      "ĠDywi": 5484,
      "ĠrozwiÄħzanie": 5485,
      "wszy": 5486,
      "ĠRzecz": 5487,
      "Mu": 5488,
      "dla": 5489,
      "ĠwspÃ³lnie": 5490,
      "Ġcon": 5491,
      "ĠspoÅĤecznoÅĽci": 5492,
      "Ġspotkanie": 5493,
      "stego": 5494,
      "ĠOn": 5495,
      "Â°": 5496,
      "ĠstaÅĤo": 5497,
      "jnej": 5498,
      "Ġzreali": 5499,
      "ĠPL": 5500,
      "ĠGeor": 5501,
      "ĠwystÄĻpujÄħ": 5502,
      "ĠpodjÄĻ": 5503,
      "ĠWas": 5504,
      "Ca": 5505,
      "ĠÅļwiÄĻtego": 5506,
      "nina": 5507,
      "ĠYou": 5508,
      "ĠMimo": 5509,
      "Ġsekre": 5510,
      "wentual": 5511,
      "dol": 5512,
      "Ġet": 5513,
      "ĠzaÅĤoÅ¼y": 5514,
      "OP": 5515,
      "zz": 5516,
      "ĠnieruchomoÅĽci": 5517,
      "Ġdeko": 5518,
      "ĠzajÄĻcia": 5519,
      "Ġono": 5520,
      "Ġrejo": 5521,
      "Ġdba": 5522,
      "AK": 5523,
      "ĠjakieÅĽ": 5524,
      "Ġostatecznie": 5525,
      "ĠOgÃ³l": 5526,
      "sam": 5527,
      "niÄĻcie": 5528,
      "Tu": 5529,
      "Ġwpisa": 5530,
      "ent": 5531,
      "ĠZna": 5532,
      "ĠcaÅĤe": 5533,
      "âĢĶ": 5534,
      "ĠFunda": 5535,
      "brzy": 5536,
      "Ġwscho": 5537,
      "ĠzakoÅĦczeniu": 5538,
      "zowanych": 5539,
      "ĠJÃ³zefa": 5540,
      "ĠZiemi": 5541,
      "ĠTowarzystwa": 5542,
      "Ġszef": 5543,
      "Ġtle": 5544,
      "ĠKry": 5545,
      "ĠMal": 5546,
      "czÄħc": 5547,
      "ĠmiÅĤo": 5548,
      "Ġnikt": 5549,
      "ĠdotyczÄħcych": 5550,
      "ĠPraw": 5551,
      "ĠKomisji": 5552,
      "ĠpracowaÅĤ": 5553,
      "ĠNiemcy": 5554,
      "Ġfakty": 5555,
      "ĠoddziaÅĤy": 5556,
      "Ġinspi": 5557,
      "iÄĻcej": 5558,
      "eksy": 5559,
      "jeÅ¼dÅ¼a": 5560,
      "Opis": 5561,
      "liam": 5562,
      "Ġszereg": 5563,
      "Ġniezna": 5564,
      "ĠBydgo": 5565,
      "czonej": 5566,
      "No": 5567,
      "Ġradzie": 5568,
      "Ju": 5569,
      "chan": 5570,
      "Ġkrze": 5571,
      "skÄĻ": 5572,
      "ĠnazwÄħ": 5573,
      "Uczestnicy": 5574,
      "Ġarmii": 5575,
      "sowe": 5576,
      "ĠzdjÄĻÄĩ": 5577,
      "ĠbieÅ¼Äħ": 5578,
      "ĠinÅ¼ynie": 5579,
      "ĠwielkoÅĽci": 5580,
      "ĠpostaÄĩ": 5581,
      "ĠBor": 5582,
      "ĠÅ»e": 5583,
      "vis": 5584,
      "ĠjesteÅĽ": 5585,
      "Ġjesie": 5586,
      "Fa": 5587,
      "ĠmÃ³z": 5588,
      "Ġmasa": 5589,
      "Ġchro": 5590,
      "Ġwczes": 5591,
      "wcy": 5592,
      "Ġzbiera": 5593,
      "ktÃ³re": 5594,
      "sob": 5595,
      "Ġpytania": 5596,
      "Ġfunda": 5597,
      "Ġuczy": 5598,
      "ĠsÅĤuÅ¼Äħ": 5599,
      "tero": 5600,
      "Ġzanie": 5601,
      ".).": 5602,
      "iÄĻku": 5603,
      "ĠMusi": 5604,
      "ĠlÄħ": 5605,
      "Ġpola": 5606,
      "ĠczÅĤonek": 5607,
      "giÄĻ": 5608,
      "Ġwykonane": 5609,
      "ÅĤoby": 5610,
      "ĠPowsta": 5611,
      "nowaÅĤ": 5612,
      "zdÃ³w": 5613,
      "Ġpraca": 5614,
      "ĠdrogÄħ": 5615,
      "gl": 5616,
      "Ġiden": 5617,
      "ĠzaczÄħÅĤ": 5618,
      "ĠCor": 5619,
      "OT": 5620,
      "ĠChri": 5621,
      "ander": 5622,
      "wagi": 5623,
      "AW": 5624,
      "ĠEuropejskiej": 5625,
      "zach": 5626,
      "owice": 5627,
      "ĠbudowÄĻ": 5628,
      "ĠodÅ¼y": 5629,
      "ica": 5630,
      "Ġpali": 5631,
      "niejszy": 5632,
      "ĠÅļrod": 5633,
      "Ġdoskonale": 5634,
      "EG": 5635,
      "Ġgrzy": 5636,
      "ĠLondy": 5637,
      "ÅĤkiem": 5638,
      "Ġnowym": 5639,
      "Ġoficer": 5640,
      "Bu": 5641,
      "ĠosiÄħga": 5642,
      "Ġporta": 5643,
      "Ġprzyda": 5644,
      "Ġpowietrza": 5645,
      "ĠKaÅ¼dy": 5646,
      "Ġ'": 5647,
      "Ġbur": 5648,
      "Ġchroni": 5649,
      "Ġpokoju": 5650,
      "Ġleczenia": 5651,
      "Ġcookies": 5652,
      "Ġstyl": 5653,
      "Ġpta": 5654,
      "trzymuje": 5655,
      "Ġobszarze": 5656,
      "seÅĤ": 5657,
      "Ġswego": 5658,
      "ĠkosztÃ³w": 5659,
      "kimi": 5660,
      "Ġtelefo": 5661,
      "ĠCzerwo": 5662,
      "red": 5663,
      "Ġzadania": 5664,
      "czonego": 5665,
      "ĠSP": 5666,
      "Ġreprezentacji": 5667,
      "Ġzade": 5668,
      "ĠwyrÃ³Å¼nia": 5669,
      "Ġstandard": 5670,
      "ĠÅĽwiÄħty": 5671,
      "ĠduÅ¼ych": 5672,
      "Ġkolory": 5673,
      "cek": 5674,
      "Å¼Äħda": 5675,
      "Ġkoncep": 5676,
      "Ġpunkt": 5677,
      "ĠprÄħ": 5678,
      "Ġpoziomu": 5679,
      "ĠpieniÄĻdzy": 5680,
      "ÅĽciej": 5681,
      "Ġeli": 5682,
      "Ġpoinfor": 5683,
      "inÄħ": 5684,
      "ĠuÅ¼ytkowa": 5685,
      "Ġrower": 5686,
      "Ġprosto": 5687,
      "ĠwÅĤadz": 5688,
      "Ġznany": 5689,
      "ĠzwiÄħzani": 5690,
      "Ġniebie": 5691,
      "ssa": 5692,
      "Ġpowinni": 5693,
      "ample": 5694,
      "Ġprowin": 5695,
      "Ġnaczy": 5696,
      "ĠwypeÅĤ": 5697,
      "stawa": 5698,
      "hy": 5699,
      "Ġniepod": 5700,
      "use": 5701,
      "Ġrozmia": 5702,
      "liza": 5703,
      "Ġchor": 5704,
      ".),": 5705,
      "Ġfol": 5706,
      "EM": 5707,
      "Ġturnieju": 5708,
      "ction": 5709,
      "Absolwen": 5710,
      "wiÄĻcej": 5711,
      "Ġubra": 5712,
      "telni": 5713,
      "mara": 5714,
      "Ġrady": 5715,
      "tyki": 5716,
      "Ġteor": 5717,
      "kan": 5718,
      "ĠmÃ³j": 5719,
      "Ġfabry": 5720,
      "ĠAustra": 5721,
      "Ġrozsze": 5722,
      "ĠBardzo": 5723,
      "towaÅĤa": 5724,
      "ÄĨ": 5725,
      "dii": 5726,
      "ida": 5727,
      "ĠwiÄĻzie": 5728,
      "ĠUE": 5729,
      "Ġeksplo": 5730,
      "Ġdotyczy": 5731,
      "leb": 5732,
      "jÄħco": 5733,
      "Ġwybor": 5734,
      "Ġrozpoczyna": 5735,
      "towana": 5736,
      "Ġremon": 5737,
      "Ġwycofa": 5738,
      "ÅĤania": 5739,
      "http": 5740,
      "ĠmogÅĤa": 5741,
      "ĠPamiÄĻ": 5742,
      "ID": 5743,
      "ĠBud": 5744,
      "Ġ)": 5745,
      "ografi": 5746,
      "Ġgimna": 5747,
      "CzÅĤonkowie": 5748,
      "Ġab": 5749,
      "ĠkoÅĤo": 5750,
      "Ġdyrek": 5751,
      "mil": 5752,
      "bert": 5753,
      "ĠwarunkÃ³w": 5754,
      "Ġmala": 5755,
      "ĠmaÅĤe": 5756,
      "odc": 5757,
      "ĠDar": 5758,
      "ĠskoÅĦ": 5759,
      "Ġmacie": 5760,
      "ĠMer": 5761,
      "Ġmiast": 5762,
      "ĠzamÃ³wienia": 5763,
      "ies": 5764,
      "Ġstawia": 5765,
      "ĠNiestety": 5766,
      "Ġzaprojekt": 5767,
      "ĠNatomiast": 5768,
      "Ġgitara": 5769,
      "ĠCom": 5770,
      "Ġpisarz": 5771,
      "ĠprzyszÅĤoÅĽci": 5772,
      "mowania": 5773,
      "ĠnadziejÄĻ": 5774,
      "Å¹rÃ³d": 5775,
      "ĠprzeÅ¼y": 5776,
      "Ġastro": 5777,
      "Ġzamieszka": 5778,
      "mentar": 5779,
      "Ġteatra": 5780,
      "ĠPana": 5781,
      "Ġbraku": 5782,
      "Ġcesa": 5783,
      "ĠDro": 5784,
      "ĠuzyskaÄĩ": 5785,
      "ĠPani": 5786,
      "ĠWojewÃ³dz": 5787,
      "Ġstandar": 5788,
      "Ġpiechoty": 5789,
      "ĠDem": 5790,
      "ĠSejm": 5791,
      "Ġdale": 5792,
      "zjum": 5793,
      "cro": 5794,
      "fery": 5795,
      "ĠOÅĽ": 5796,
      "dnik": 5797,
      "Bar": 5798,
      "Ġrezerwa": 5799,
      "Ġaplikacji": 5800,
      "Ġskom": 5801,
      "kacja": 5802,
      "Ġwez": 5803,
      "Ġgeo": 5804,
      "cebo": 5805,
      "Ġudzie": 5806,
      "Ġdokumenta": 5807,
      "dawcy": 5808,
      "Ġmojej": 5809,
      "Ġmatematy": 5810,
      "mir": 5811,
      "Ġzwyczaj": 5812,
      "zÅĤ": 5813,
      "ĠpamiÄĻtaÄĩ": 5814,
      "rÃ³g": 5815,
      "ĠPodstaw": 5816,
      "Ġgdyby": 5817,
      "Ġdostaw": 5818,
      "Ġdlaczego": 5819,
      "Ġproblemu": 5820,
      "Ġmal": 5821,
      "Ġdek": 5822,
      "Ġfilmie": 5823,
      "ĠogÃ³le": 5824,
      "ĠOlimpi": 5825,
      "Å¡": 5826,
      "ĠKsiÄħ": 5827,
      "tychmiast": 5828,
      "Ġniebezpie": 5829,
      "czania": 5830,
      "wano": 5831,
      "ĠOczywiÅĽcie": 5832,
      "____": 5833,
      "ĠWielko": 5834,
      "pki": 5835,
      "Ġkatolicki": 5836,
      "Ġwyka": 5837,
      "ĠpÅĤyty": 5838,
      "Ġzadowo": 5839,
      "towano": 5840,
      "chniÄĻ": 5841,
      "ktery": 5842,
      "Ġskon": 5843,
      "char": 5844,
      "kwa": 5845,
      "gon": 5846,
      "Ġmarket": 5847,
      "Ġelektro": 5848,
      "czonym": 5849,
      "Ġosie": 5850,
      "ĠOkrÄĻ": 5851,
      "Ġmodelu": 5852,
      "tin": 5853,
      "Ġakade": 5854,
      "Ġtabli": 5855,
      "example": 5856,
      "Ġkrajach": 5857,
      "Ġnagrody": 5858,
      "niono": 5859,
      "ĠUniwersytecie": 5860,
      "ĠwchodzÄħ": 5861,
      "Ġoferuje": 5862,
      "Ġadministracyjnie": 5863,
      "ĠkrajÃ³w": 5864,
      "Ġscho": 5865,
      "Ġrzeki": 5866,
      "naÅĽcie": 5867,
      "ĠArchi": 5868,
      "Ġdodatkowe": 5869,
      "ĠrzeczywistoÅĽci": 5870,
      "stname": 5871,
      "Ġulu": 5872,
      "ĠWrocÅĤaw": 5873,
      "ĠprzeksztaÅĤ": 5874,
      "ĠtysiÄħ": 5875,
      "ksu": 5876,
      "Ġzdecydowanie": 5877,
      "Ġresta": 5878,
      "Ġsklepie": 5879,
      "ĠdÅºwiÄĻ": 5880,
      "ĠUr": 5881,
      "ĠÃ³wczes": 5882,
      "Ġproto": 5883,
      "Ġobwo": 5884,
      "wÃ³w": 5885,
      "Ġkrea": 5886,
      "wangeli": 5887,
      "Ġoch": 5888,
      "Ġnajlepsze": 5889,
      "ĠuzyskaÅĤ": 5890,
      "ĠwÅĤosÃ³w": 5891,
      "ÅĤgo": 5892,
      "ĠkupiÄĩ": 5893,
      "Ġwystarczy": 5894,
      "Ġjakiego": 5895,
      "Ġfanta": 5896,
      "Ġwyborach": 5897,
      "Ġprzeczy": 5898,
      "ÅĦscy": 5899,
      "Ni": 5900,
      "Cza": 5901,
      "ĠoprÃ³cz": 5902,
      "ierÄĻ": 5903,
      "ĠwiÄĻksze": 5904,
      "dziny": 5905,
      "dzieÅ¼": 5906,
      "ĠnapiÄĻ": 5907,
      "ĠNarodowego": 5908,
      "niewaÅ¼": 5909,
      "Ġkuchni": 5910,
      "mato": 5911,
      "ĠtytuÅĤu": 5912,
      "Ġdostosowa": 5913,
      "Ġalkoho": 5914,
      "ĠrÃ³Å¼no": 5915,
      "ĠCentra": 5916,
      "dawca": 5917,
      "Ġprezydent": 5918,
      "].": 5919,
      "jestrowa": 5920,
      "nnego": 5921,
      "Ġmody": 5922,
      "Ġarcy": 5923,
      "ĠWz": 5924,
      "zowana": 5925,
      "tyczny": 5926,
      "ĠpodrÃ³Å¼y": 5927,
      "posto": 5928,
      "Ġsing": 5929,
      "ĠgÅĤÃ³wnym": 5930,
      "Ġpani": 5931,
      "ĠGrzego": 5932,
      "cale": 5933,
      "ĠJuÅ¼": 5934,
      "ĠMarek": 5935,
      "Ġplanowa": 5936,
      "gene": 5937,
      "ĠZo": 5938,
      "Ġzapisa": 5939,
      "camy": 5940,
      "szyÅĤ": 5941,
      "EK": 5942,
      "Ġrozpa": 5943,
      "Ġuka": 5944,
      "Ġprzedszko": 5945,
      "Ġniestety": 5946,
      "ĠFilm": 5947,
      "ĠTre": 5948,
      ":||": 5949,
      "ĠTry": 5950,
      "poli": 5951,
      "rzono": 5952,
      "spÃ³l": 5953,
      "ĠodbyÅĤ": 5954,
      "Ġklasz": 5955,
      "mac": 5956,
      "ĠBogu": 5957,
      "ĠdruÅ¼yny": 5958,
      "Åį": 5959,
      "waniem": 5960,
      "dery": 5961,
      "Ġmagi": 5962,
      "ĠuÅ¼ytkownika": 5963,
      "ĠZasÅĤugi": 5964,
      "gli": 5965,
      "Ġkoszty": 5966,
      "Podczas": 5967,
      "Ġefektyw": 5968,
      "lak": 5969,
      "lera": 5970,
      "anna": 5971,
      "Spo": 5972,
      "ĠzostanÄħ": 5973,
      "ĠduÅ¼ym": 5974,
      "derni": 5975,
      "ĠWrocÅĤawiu": 5976,
      "Ġprzynajmniej": 5977,
      "ĠWilliam": 5978,
      "Ġkapli": 5979,
      "ĠchwilÄĻ": 5980,
      "ĠTele": 5981,
      "Ġprocesu": 5982,
      "ĠPiÅĤ": 5983,
      "Ġotwo": 5984,
      "Ġodno": 5985,
      "ĠcelÃ³w": 5986,
      "Ġtrakt": 5987,
      "ĠNowym": 5988,
      "Ġmedal": 5989,
      "ĠPoza": 5990,
      "ĠbezpÅĤa": 5991,
      "mistrz": 5992,
      "Ġzwraca": 5993,
      "imi": 5994,
      "gatyw": 5995,
      "Ġokolicy": 5996,
      "ĠKan": 5997,
      "Ġpatro": 5998,
      "ĠAir": 5999,
      "Ġnosi": 6000,
      "Ġmistrz": 6001,
      "ĠwÅĤaÅĽciwoÅĽci": 6002,
      "Ġtwarzy": 6003,
      "Ġbrytyjski": 6004,
      "ĠskÅĤadzie": 6005,
      "ĠwyjÄħtk": 6006,
      "Ġduch": 6007,
      "Ġupad": 6008,
      "sÄĻ": 6009,
      "Ġnapo": 6010,
      "Ġrejonie": 6011,
      "Ġole": 6012,
      "Ġodbior": 6013,
      "biÅĤ": 6014,
      "ujÄħc": 6015,
      "ĠdziesiÄĻ": 6016,
      "ĠTro": 6017,
      "Lo": 6018,
      "ĠprzepisÃ³w": 6019,
      "turalne": 6020,
      "Ġasy": 6021,
      "ĠPeter": 6022,
      "ĠnastÄĻpujÄħce": 6023,
      "trwa": 6024,
      "riusz": 6025,
      "Ġzostali": 6026,
      "Ġprzebiega": 6027,
      "ciera": 6028,
      "cel": 6029,
      "nieÅĽÄĩ": 6030,
      "toni": 6031,
      "bierz": 6032,
      "czymy": 6033,
      "Ġukrai": 6034,
      "ĠEr": 6035,
      "ĠwÅĤasnych": 6036,
      "Ġjaka": 6037,
      "dziel": 6038,
      "Ġkogo": 6039,
      "ĠSystem": 6040,
      "Ġewentual": 6041,
      "Ġswobo": 6042,
      "ĠmaÅĤych": 6043,
      "ĠPucharu": 6044,
      "ĠWspÃ³ÅĤ": 6045,
      "Ġaresz": 6046,
      "Ġist": 6047,
      "ĠwykÅĤad": 6048,
      "Ġmen": 6049,
      "Ġsocja": 6050,
      "ĠDziaÅĤa": 6051,
      "Ġudziela": 6052,
      "Ġwspomnia": 6053,
      "ĠzasiÄĻ": 6054,
      "ĠTadeusz": 6055,
      "Ġteren": 6056,
      "ĠMuzy": 6057,
      "Ġojca": 6058,
      "ĠFry": 6059,
      "Ġkwali": 6060,
      "ktuali": 6061,
      "ĠPoczÄħ": 6062,
      "ĠSport": 6063,
      "Ġinteresu": 6064,
      "ĠbranÅ¼y": 6065,
      "sÅĤuguje": 6066,
      "Ġszkolenia": 6067,
      "Ġwas": 6068,
      "ĠwspÃ³ÅĤprac": 6069,
      "tri": 6070,
      "ĠwiadomoÅĽci": 6071,
      "Ġplu": 6072,
      "ĠPK": 6073,
      "ĠoszczÄĻ": 6074,
      "ĠÅ¼ona": 6075,
      "Ġszans": 6076,
      "as": 6077,
      "Kolej": 6078,
      "ĠdoÅĽwiadczenia": 6079,
      "lakty": 6080,
      "ĠDan": 6081,
      "ĠrobiÄĩ": 6082,
      "zyli": 6083,
      "Ġeksper": 6084,
      "towÄħ": 6085,
      "Ġwith": 6086,
      "Ġjakby": 6087,
      "gmu": 6088,
      "Pu": 6089,
      "illa": 6090,
      "niejszym": 6091,
      "ĠTom": 6092,
      "Ġwraca": 6093,
      "EL": 6094,
      "ls": 6095,
      "ĠUniver": 6096,
      "Ġtekst": 6097,
      "Ġregiona": 6098,
      "Ġwynik": 6099,
      "cona": 6100,
      "Ġszwe": 6101,
      "Ġkierowni": 6102,
      "ĠpodkreÅĽla": 6103,
      "tkami": 6104,
      "ĠIzra": 6105,
      "Ġpkt": 6106,
      "Ġepi": 6107,
      "ĠciÅĽnie": 6108,
      "bignie": 6109,
      "ĠporzÄħd": 6110,
      "miona": 6111,
      "ĠMis": 6112,
      "ĠÅĽrodki": 6113,
      "Ġolej": 6114,
      "hel": 6115,
      "gosÅĤa": 6116,
      "Ġplaneto": 6117,
      "ĠwewnÄħtrz": 6118,
      "Ġradi": 6119,
      "Ġjakiej": 6120,
      "Ġrejestra": 6121,
      "ĠRegi": 6122,
      "Ġpokar": 6123,
      "ĠHol": 6124,
      "ĠpomysÅĤ": 6125,
      "set": 6126,
      "ĠFir": 6127,
      "ĠsamochodÃ³w": 6128,
      "Ġnajpierw": 6129,
      "Ġpolsko": 6130,
      "Ġfesti": 6131,
      "Ġrezu": 6132,
      "cezji": 6133,
      "ĠznaczÄħ": 6134,
      "prawie": 6135,
      "Ġdrog": 6136,
      "polskim": 6137,
      "mali": 6138,
      "mart": 6139,
      "niesienia": 6140,
      "Ġbudynek": 6141,
      "mai": 6142,
      "ĠTho": 6143,
      "Ġkontroli": 6144,
      "ĠodlegÅĤoÅĽci": 6145,
      "Ġkompa": 6146,
      "Ġgranicy": 6147,
      "cena": 6148,
      "Ġprzyrody": 6149,
      "ĠSko": 6150,
      "ĠAuto": 6151,
      "ES": 6152,
      "ĠmÅĤodych": 6153,
      "Ġtj": 6154,
      "Ġapara": 6155,
      "ĠPoznaÅĦ": 6156,
      "ĠwÅĤasnej": 6157,
      "Ġkardyna": 6158,
      "Ġex": 6159,
      "Ġpunktu": 6160,
      "techni": 6161,
      "ÅĽciÄĩ": 6162,
      "ĠPia": 6163,
      "tanie": 6164,
      "peÅĤno": 6165,
      "Wszyst": 6166,
      "ĠliczbÄĻ": 6167,
      "Ġszlach": 6168,
      "twiera": 6169,
      "ĠSzkoÅĤy": 6170,
      "Ġkonfli": 6171,
      "ĠbrÄħz": 6172,
      "Ġdrugiego": 6173,
      "towym": 6174,
      "nnym": 6175,
      "ĠszczÄĻÅĽcie": 6176,
      "Ġrezulta": 6177,
      "mann": 6178,
      "Ġgier": 6179,
      "cle": 6180,
      "ien": 6181,
      "ĠIgrzy": 6182,
      "cm": 6183,
      "komi": 6184,
      "ĠMistrzostw": 6185,
      "Ġfla": 6186,
      "ĠpodwÃ³j": 6187,
      "iÄĻkszoÅĽÄĩ": 6188,
      "ĠwÅĤoski": 6189,
      "Ġzgroma": 6190,
      "miana": 6191,
      "ĠuczestnikÃ³w": 6192,
      "ĠGoogle": 6193,
      "ĠdomÃ³w": 6194,
      "pienie": 6195,
      "Ġpowietrz": 6196,
      "styka": 6197,
      "ET": 6198,
      "MS": 6199,
      "sowy": 6200,
      "ĠzadaÅĦ": 6201,
      "Fi": 6202,
      "centa": 6203,
      "ĠBal": 6204,
      "kcje": 6205,
      "Ġpobra": 6206,
      "prost": 6207,
      "Ġznajdziesz": 6208,
      "ĠDÅĤu": 6209,
      "ĠfilmÃ³w": 6210,
      "ĠWam": 6211,
      "ĠTer": 6212,
      "rego": 6213,
      "ĠToru": 6214,
      "ong": 6215,
      "ĠBen": 6216,
      "ĠprzepÅĤy": 6217,
      "niowe": 6218,
      "kien": 6219,
      "ĠkoÅĦc": 6220,
      "Ġdzieje": 6221,
      "Ġmoni": 6222,
      "Ġniedzie": 6223,
      "ĠrzÄħdu": 6224,
      "ĠÅĽwiadomo": 6225,
      "Ġzaledwie": 6226,
      "ĠNr": 6227,
      "Ġwszelkie": 6228,
      "Ġzakup": 6229,
      "ĠUÅ¼ytk": 6230,
      "Ġlista": 6231,
      "ĠRich": 6232,
      "ĠpoczÄħtkowo": 6233,
      "Filmy": 6234,
      "Ġuleg": 6235,
      "ĠAdministra": 6236,
      "Ġmiejscach": 6237,
      "Ġnowa": 6238,
      "ĠPomo": 6239,
      "tkÄħ": 6240,
      "Ġdyrektor": 6241,
      "tacza": 6242,
      "Doda": 6243,
      "ĠprzeglÄħdar": 6244,
      "trzeb": 6245,
      "Ġnatychmiast": 6246,
      "ĠNajlep": 6247,
      "one": 6248,
      "Ġperku": 6249,
      "Ġprawda": 6250,
      "Ġakademi": 6251,
      "Pe": 6252,
      "ture": 6253,
      "ĠwiÄĻkszÄħ": 6254,
      "ĠprzyjaciÃ³ÅĤ": 6255,
      "ĠTeraz": 6256,
      "ĠwÅĤadze": 6257,
      "ĠWojciech": 6258,
      "bami": 6259,
      "nÃ³": 6260,
      "Ġcharak": 6261,
      "Ġprzo": 6262,
      "Ġkompozytor": 6263,
      "Ġprzyw": 6264,
      "ctwie": 6265,
      "Ġstanowiska": 6266,
      "ĠFC": 6267,
      "ĠAnglii": 6268,
      "Ġzwa": 6269,
      "ĠmateriaÅĤu": 6270,
      "ĠVer": 6271,
      "siona": 6272,
      "ĠBibliote": 6273,
      "ĠPolskich": 6274,
      "leniu": 6275,
      "stek": 6276,
      "sada": 6277,
      "ĠnajwiÄĻkszych": 6278,
      "Ġsej": 6279,
      "uri": 6280,
      "sopis": 6281,
      "owskim": 6282,
      "ĠTru": 6283,
      "Ġrynek": 6284,
      "Se": 6285,
      "Ġdroga": 6286,
      "szczeÅĦ": 6287,
      "Ġojciec": 6288,
      "tÅĤu": 6289,
      "Ġbazie": 6290,
      "hen": 6291,
      "kres": 6292,
      "ĠwpÅĤywa": 6293,
      "ĠPZ": 6294,
      "Ġmusimy": 6295,
      "ĠSuper": 6296,
      "ĠTran": 6297,
      "ĠNarodowej": 6298,
      "tycznego": 6299,
      "cisk": 6300,
      "Ġofercie": 6301,
      "Ġwprowadza": 6302,
      "ĠTow": 6303,
      "zowaÅĤ": 6304,
      "powa": 6305,
      "ÅĽniu": 6306,
      "ĠDodatkowo": 6307,
      "macnia": 6308,
      "ĠWorld": 6309,
      "Ġow": 6310,
      "Ġol": 6311,
      "Absolwenci": 6312,
      "ĠmÅĤodzieÅ¼y": 6313,
      "Ġrewolu": 6314,
      "Ġkadencji": 6315,
      "stia": 6316,
      "ĠpoÅĤowy": 6317,
      "ÅĤty": 6318,
      "ĠpÃ³Åº": 6319,
      "Ġnajstar": 6320,
      "Ġdochodzi": 6321,
      "Ġznane": 6322,
      "ĠsÅĤone": 6323,
      "Ġkonstrukcji": 6324,
      "Ġodpowiednie": 6325,
      "loty": 6326,
      "Ġ#": 6327,
      "ZY": 6328,
      "ĠchÅĤop": 6329,
      "terii": 6330,
      "Ġwypa": 6331,
      "Ġwytwarza": 6332,
      "Ġwokali": 6333,
      "Ġzdaniem": 6334,
      "Ġodczu": 6335,
      "ĠdÅĤugie": 6336,
      "ĠbÄĻdziesz": 6337,
      "Ġsukces": 6338,
      "ĠPolity": 6339,
      "ĠbÄĻdÄĻ": 6340,
      "dowanie": 6341,
      "Ġprzekro": 6342,
      "ĠWyso": 6343,
      "mera": 6344,
      "ĠsÅĤÃ³w": 6345,
      "Bi": 6346,
      "Ġzasad": 6347,
      "ĠPru": 6348,
      "nujemy": 6349,
      "Ġmagne": 6350,
      "Kariera": 6351,
      "ĠreÅ¼": 6352,
      "gÅĤ": 6353,
      "Ġforum": 6354,
      "ĠkiedyÅĽ": 6355,
      "ĠpoÅĤÄħczenia": 6356,
      "ĠwytwÃ³r": 6357,
      "ĠRec": 6358,
      "moÅĽÄĩ": 6359,
      "Ġwiecz": 6360,
      "ĠNowo": 6361,
      "Ġplatfor": 6362,
      "ĠAndrze": 6363,
      "ĠnoÅ¼nej": 6364,
      "ĠamerykaÅĦska": 6365,
      "sjÄĻ": 6366,
      "reszcie": 6367,
      "Ġnarciar": 6368,
      "rzona": 6369,
      "Ġtwar": 6370,
      "Ġwytrzyma": 6371,
      "dri": 6372,
      "Ġrywali": 6373,
      "Ġzastosowanie": 6374,
      "ĠXVII": 6375,
      "Ġserialu": 6376,
      "Ġwychowa": 6377,
      "stÄħpienia": 6378,
      "Ġhipo": 6379,
      "bora": 6380,
      "osob": 6381,
      "Ġemery": 6382,
      "ĠoÅĽwiad": 6383,
      "ach": 6384,
      "zajem": 6385,
      "ĠwystÄħpiÅĤ": 6386,
      "ĠWyÅ¼": 6387,
      "Ġpry": 6388,
      "ĠspÃ³ÅĤki": 6389,
      "jak": 6390,
      "ÅĽliÄĩ": 6391,
      "ĠÅĽredniowie": 6392,
      "Å¼ono": 6393,
      "ĠwywoÅĤa": 6394,
      "ĠVe": 6395,
      "ĠNau": 6396,
      "twiej": 6397,
      "ĠDavi": 6398,
      "jnego": 6399,
      "ĠwrzeÅĽniu": 6400,
      "ĠpuÅĤku": 6401,
      "Ġnegatyw": 6402,
      "Ġsamochodu": 6403,
      "ĠkaÅ¼da": 6404,
      "Ġwiary": 6405,
      "ÅĤymi": 6406,
      "chodnich": 6407,
      "towanych": 6408,
      "ĠKatarzy": 6409,
      "ĠDia": 6410,
      "ĠMatki": 6411,
      "ĠsprzedaÅ¼": 6412,
      "kÅĤo": 6413,
      "ĠĠĊ": 6414,
      "tam": 6415,
      "ĠÅĽwiatÅĤa": 6416,
      "ĠrÄĻce": 6417,
      "ĠST": 6418,
      "ĠrÃ³Å¼ni": 6419,
      "Ġkonkursu": 6420,
      "ĠPowie": 6421,
      "val": 6422,
      "menda": 6423,
      "Ġsobo": 6424,
      "ung": 6425,
      "ĠmogÅĤy": 6426,
      "ĠciÄħÅ¼y": 6427,
      "ĠKazimierz": 6428,
      "ĠsÄĻ": 6429,
      "ĠposiadajÄħ": 6430,
      "ĠczÄĻÅĽciej": 6431,
      "mand": 6432,
      "jskÄħ": 6433,
      "Ġporozu": 6434,
      "mych": 6435,
      "Ġprzypadkach": 6436,
      "polski": 6437,
      "skry": 6438,
      "Ġzamiesz": 6439,
      "Ġstosowania": 6440,
      "ĠÅĽla": 6441,
      "ĠPark": 6442,
      "tania": 6443,
      "Ġserwisu": 6444,
      "ĠZbignie": 6445,
      "Ġstary": 6446,
      "ĠBri": 6447,
      "ĠdoÅĽwiadczenie": 6448,
      "Ġjaj": 6449,
      "nos": 6450,
      "Ġsan": 6451,
      "niego": 6452,
      "ĠStanÃ³w": 6453,
      "wiam": 6454,
      "kujÄħ": 6455,
      "dows": 6456,
      "Ġwyobra": 6457,
      "Ġniewie": 6458,
      "Ġmieszkania": 6459,
      "WÅĤa": 6460,
      "ĠsprzÄĻtu": 6461,
      "larÃ³w": 6462,
      "Ġrozumie": 6463,
      "Ġinterpre": 6464,
      "ĠWielka": 6465,
      "Ġduchowny": 6466,
      "ĠleÅĽ": 6467,
      "ĠWÅĤadysÅĤaw": 6468,
      "ĠrozwiÄħzaÅĦ": 6469,
      "ĠSpoÅĤe": 6470,
      "Ġzyska": 6471,
      "pliwoÅĽci": 6472,
      "gor": 6473,
      "Ġjednostek": 6474,
      "Ġoby": 6475,
      "Ġinternetowych": 6476,
      "ĠOdrodzenia": 6477,
      "Ð²": 6478,
      "dowaÄĩ": 6479,
      "ĠciaÅĤo": 6480,
      "ĠpoÅĽrednictwem": 6481,
      "ĠnapisaÅĤ": 6482,
      "munika": 6483,
      "gip": 6484,
      "ĠZygmu": 6485,
      "dowym": 6486,
      "Ġzalicza": 6487,
      "Ġpolicja": 6488,
      "Ġgrupie": 6489,
      "Ġ(âĢŀ": 6490,
      "Ġiz": 6491,
      "Å¼ni": 6492,
      "Ġzb": 6493,
      "ĠokrÄħ": 6494,
      "ĠFina": 6495,
      "Ġpewne": 6496,
      "bienia": 6497,
      "ĠmieÅĽci": 6498,
      "zjÄħ": 6499,
      "wcÃ³w": 6500,
      "Ġas": 6501,
      "ĠksiÄĻcia": 6502,
      "Ġcena": 6503,
      "Ġprowadzenia": 6504,
      "ĠmateriaÅĤ": 6505,
      "Ġzarejestrowa": 6506,
      "Ġdystry": 6507,
      "ĠÅĤazie": 6508,
      "Ġtelef": 6509,
      "har": 6510,
      "ĠKom": 6511,
      "wcu": 6512,
      "ĠmusiaÅĤ": 6513,
      "Ġenerge": 6514,
      "Ġpraco": 6515,
      "Ġzali": 6516,
      "Ġboj": 6517,
      "Ġhonor": 6518,
      "ĠwysyÅĤa": 6519,
      "Ġmistrzostw": 6520,
      "Ġproducent": 6521,
      "ndy": 6522,
      "Ġrekor": 6523,
      "ĠkrÃ³tko": 6524,
      "Ġostro": 6525,
      "Å¹rÃ³dÅĤo": 6526,
      "Ġpopu": 6527,
      "ĠwÅĤÃ³": 6528,
      "Polskie": 6529,
      "simy": 6530,
      "Ã³rek": 6531,
      "Ġpolu": 6532,
      "ĠprzestÄĻp": 6533,
      "Ġchcemy": 6534,
      "unku": 6535,
      "tta": 6536,
      "Å¼onego": 6537,
      "ĠHiszpanii": 6538,
      "ĠMari": 6539,
      "ĠopuÅĽci": 6540,
      "Ġlogi": 6541,
      "Ñĥ": 6542,
      "ĠZostaÅĤ": 6543,
      "Ġoskar": 6544,
      "bytki": 6545,
      "dge": 6546,
      "Ġdanego": 6547,
      "Ġlekkoat": 6548,
      "Ġjo": 6549,
      "wami": 6550,
      "Ġwarzy": 6551,
      "Ġkampanii": 6552,
      "peÅĤnospraw": 6553,
      "ĠwnÄĻtrza": 6554,
      "Ġpedago": 6555,
      "kowska": 6556,
      "jechaÅĤ": 6557,
      "ĠksiÄħÅ¼ek": 6558,
      "ĠWydziaÅĤu": 6559,
      "niosÅĤa": 6560,
      "ĠktÃ³rymi": 6561,
      "kowÄħ": 6562,
      "Ġlekarz": 6563,
      "ĠsprawÄĻ": 6564,
      "OK": 6565,
      "ĠSÅĤowa": 6566,
      "zycji": 6567,
      "ĠWojska": 6568,
      "ĠTam": 6569,
      "skÃ³w": 6570,
      "minowa": 6571,
      "Ġhistoria": 6572,
      "Ġkawa": 6573,
      "ĠpomÃ³c": 6574,
      "ĠwolnoÅĽci": 6575,
      "ÅĤod": 6576,
      "Ġmetal": 6577,
      "âĢĿ)": 6578,
      "Ġparty": 6579,
      "Ġnauczyciel": 6580,
      "kcjÄĻ": 6581,
      "kl": 6582,
      "bytkÃ³w": 6583,
      "Ġwysoko": 6584,
      "ccy": 6585,
      "Ġaustria": 6586,
      "centra": 6587,
      "Ġprocedu": 6588,
      "matu": 6589,
      "Ġsporo": 6590,
      "ĠmiÄĻk": 6591,
      "nocy": 6592,
      "Ġinnowa": 6593,
      "ĠÅĽlu": 6594,
      "zempla": 6595,
      "ĠobiektÃ³w": 6596,
      "Å¼sa": 6597,
      "Ġpolityki": 6598,
      "Ġznisz": 6599,
      "Ġwiek": 6600,
      "rÃ³deÅĤ": 6601,
      "dziÅĤy": 6602,
      "ĠdziaÅĤacz": 6603,
      "kana": 6604,
      "Ġtest": 6605,
      "Ġklasyfikacji": 6606,
      "ĠÎ": 6607,
      "ĠNaleÅ¼y": 6608,
      "ĠwraÅ¼enie": 6609,
      "bisku": 6610,
      "Ġoprogram": 6611,
      "gÃ³r": 6612,
      "CI": 6613,
      "Ġdopasowa": 6614,
      "jek": 6615,
      "Ġinwestycji": 6616,
      "Ġseku": 6617,
      "Ġdynami": 6618,
      "niejsza": 6619,
      "Ġkore": 6620,
      "ĠrÃ³Å¼norod": 6621,
      "Ġcyfr": 6622,
      "Ġdwuk": 6623,
      "Ġostatnim": 6624,
      "Ġaku": 6625,
      "bÄĻdzie": 6626,
      "ĠEk": 6627,
      "Ġdes": 6628,
      "ĠÅ¼yw": 6629,
      "lizm": 6630,
      "owaÅĤo": 6631,
      "ĠÅ¼ywo": 6632,
      "AmerykaÅĦscy": 6633,
      "ĠmilionÃ³w": 6634,
      "Ġformula": 6635,
      "ĠDra": 6636,
      "noty": 6637,
      "Ġsytuacja": 6638,
      "Ġwilgo": 6639,
      "letnie": 6640,
      "ĠgÅĤÃ³wnych": 6641,
      "czasem": 6642,
      "szczu": 6643,
      "Ġpiersi": 6644,
      "Ġwspomina": 6645,
      "Ġwniosek": 6646,
      "ĠLan": 6647,
      "ĠobowiÄħzu": 6648,
      "ÅĦsko": 6649,
      "Ġwyszuki": 6650,
      "ĠRosja": 6651,
      "ĠleÅ¼y": 6652,
      "ĠoÅĽwiet": 6653,
      "Ġegza": 6654,
      "Ġyou": 6655,
      "cznika": 6656,
      "ĠMarii": 6657,
      "Ġuprawia": 6658,
      "Ġnomina": 6659,
      "Ġotwiera": 6660,
      "Gdy": 6661,
      "Ġopieku": 6662,
      "Ġpozostaje": 6663,
      "ĠGeorge": 6664,
      "tkaÅĦ": 6665,
      "mem": 6666,
      "Ġmasy": 6667,
      "Ġlicen": 6668,
      "lender": 6669,
      "Ġtransport": 6670,
      "kola": 6671,
      "dzkiego": 6672,
      "Ġligi": 6673,
      "frastru": 6674,
      "sar": 6675,
      "Ġnazwie": 6676,
      "gue": 6677,
      "Su": 6678,
      "ĠwÅĤasnÄħ": 6679,
      "ĠSpÃ³ÅĤ": 6680,
      "Ġidzie": 6681,
      "ĠgÅĤÃ³wnego": 6682,
      "Ġbiegu": 6683,
      "Ġkonserwa": 6684,
      "ktem": 6685,
      "dap": 6686,
      "Ġinni": 6687,
      "ĠpeÅĤniÅĤ": 6688,
      "piera": 6689,
      "Ġmono": 6690,
      "dziÅĤo": 6691,
      "ĠdziaÅĤ": 6692,
      "Ġpodatku": 6693,
      "ĠznalazÅĤ": 6694,
      "czko": 6695,
      "Ġsklepu": 6696,
      "czkÄħ": 6697,
      "Ġznie": 6698,
      "szeniu": 6699,
      "ĠmateriaÅĤy": 6700,
      "ĠwzdÅĤuÅ¼": 6701,
      "ĠKlu": 6702,
      "ĠstaÅĤy": 6703,
      "Ġzdrowo": 6704,
      "Ġtermin": 6705,
      "ĠpozostaÅĤych": 6706,
      "Ġmomentu": 6707,
      "Ġopiera": 6708,
      "ĠpoczÄħtek": 6709,
      "scypli": 6710,
      "Ġtury": 6711,
      "ure": 6712,
      "ĠpowiÄĻk": 6713,
      "Ġdrzew": 6714,
      "zon": 6715,
      "ĠRegu": 6716,
      "ĠWszystko": 6717,
      "Ġsystemie": 6718,
      "ĠÅĽlub": 6719,
      "ĠÅĽmierÄĩ": 6720,
      "ale": 6721,
      "Ġzaufa": 6722,
      "ĠobrÄĻ": 6723,
      "Ġdiagno": 6724,
      "ĠobciÄħ": 6725,
      "Ġcyklu": 6726,
      "nator": 6727,
      "ĠposiÅĤ": 6728,
      "Ġegzempla": 6729,
      "dzimy": 6730,
      "Ġszan": 6731,
      "bÃ³j": 6732,
      "Ġtable": 6733,
      "iÅĤ": 6734,
      "Gra": 6735,
      "Ġustaw": 6736,
      "szar": 6737,
      "Ġpary": 6738,
      "Ġzasila": 6739,
      "Polity": 6740,
      "wsze": 6741,
      "ĠdowÃ³dca": 6742,
      "ĠâĨ": 6743,
      "Ġkryzy": 6744,
      "ĠsÄħsie": 6745,
      "Ġopinii": 6746,
      "ĠpowyÅ¼": 6747,
      "ĠprzewodniczÄħ": 6748,
      "ĠÅºrÃ³deÅĤ": 6749,
      "ĠPiotra": 6750,
      "kowanych": 6751,
      "Ġperspek": 6752,
      "Cho": 6753,
      "wien": 6754,
      "finansowa": 6755,
      "ĠmiesiÄĻ": 6756,
      "mujemy": 6757,
      "ĠSÅĤa": 6758,
      "owem": 6759,
      "nastu": 6760,
      "ĠpoÅĤudniowo": 6761,
      "Ġwcale": 6762,
      "lonego": 6763,
      "ĠZnaj": 6764,
      "Ġpraktycznie": 6765,
      "jsko": 6766,
      "dowÄħ": 6767,
      "Ġsymboli": 6768,
      "ĠdrugÄħ": 6769,
      "Ġcmentarzu": 6770,
      "tnik": 6771,
      "tive": 6772,
      "rowo": 6773,
      "ĠwÅĤaÅĽciwie": 6774,
      "ĠstudiÃ³w": 6775,
      "con": 6776,
      "Ġinnej": 6777,
      "biutowaÅĤ": 6778,
      "Ġdziedzinie": 6779,
      "Ġodzyska": 6780,
      "ĠAleksandra": 6781,
      "ĠwrÄĻcz": 6782,
      "Ã¨": 6783,
      "ezer": 6784,
      "ĠsamochÃ³d": 6785,
      "nictwa": 6786,
      "ĠprÄĻdkoÅĽci": 6787,
      "ĠbiorÄħ": 6788,
      "ĠkÅĤo": 6789,
      "cono": 6790,
      "Ġrodzina": 6791,
      "Ġpos": 6792,
      "ĠnajwaÅ¼niejsze": 6793,
      "ĠpoÅĤÄħczenie": 6794,
      "Ġap": 6795,
      "Ġkompleks": 6796,
      "ĠNad": 6797,
      "ĠwÅĤad": 6798,
      "ĠPartii": 6799,
      "Ġrelacji": 6800,
      "Ġokupa": 6801,
      "tions": 6802,
      "ĠOprÃ³cz": 6803,
      "ĠnawiÄħ": 6804,
      "Ġmaju": 6805,
      "sowych": 6806,
      "Ġsprzy": 6807,
      "JeÅ¼eli": 6808,
      "czba": 6809,
      "Ġbiur": 6810,
      "ĠskorzystaÄĩ": 6811,
      "Ġsrebr": 6812,
      "ÅĦce": 6813,
      "Ġocenia": 6814,
      "ĠpasaÅ¼er": 6815,
      "ĠÅģuka": 6816,
      "Ġcharakterze": 6817,
      "ĠBole": 6818,
      "genty": 6819,
      "Ġproste": 6820,
      "ĠSS": 6821,
      "Ġspor": 6822,
      "Ġzapobiega": 6823,
      "Ġhor": 6824,
      "Ġela": 6825,
      "ÅĽciem": 6826,
      "Ġstatu": 6827,
      "korzy": 6828,
      "sady": 6829,
      "Ġkara": 6830,
      "bione": 6831,
      "Ġregionie": 6832,
      "Ġspek": 6833,
      "mieniem": 6834,
      "pel": 6835,
      "legÅĤoÅĽÄĩ": 6836,
      "piÄĻk": 6837,
      "Ġnajlepszy": 6838,
      "ĠStanach": 6839,
      "vie": 6840,
      "Ġfunkcje": 6841,
      "szczeniu": 6842,
      "ise": 6843,
      "ĠfirmÄĻ": 6844,
      "zujÄħc": 6845,
      "ĠkorzystaÄĩ": 6846,
      "pisz": 6847,
      "Ġwysy": 6848,
      "Ġtransportu": 6849,
      "chodnim": 6850,
      "ĠokrÄĻgu": 6851,
      "ĠBre": 6852,
      "Ġprzesu": 6853,
      "dzÄħc": 6854,
      "Ġwykaza": 6855,
      "Ġwzmoc": 6856,
      "ĠAli": 6857,
      "ĠstaroÅ¼y": 6858,
      "Polska": 6859,
      "pospolita": 6860,
      "ĠÅºrÃ³dÅĤa": 6861,
      "ĠsystemÃ³w": 6862,
      "ĠGeneral": 6863,
      "ĠodbyÅĤa": 6864,
      "Ġzachowania": 6865,
      "OÅļ": 6866,
      "ens": 6867,
      "Ġlekarza": 6868,
      "Ġpopar": 6869,
      "wczych": 6870,
      "Ġglo": 6871,
      "ĠPier": 6872,
      "Ġchory": 6873,
      "ĠprzesÅĤa": 6874,
      "ĠNA": 6875,
      "Pla": 6876,
      "ori": 6877,
      "!!!": 6878,
      "Ġdwor": 6879,
      "Ġkobieta": 6880,
      "Ġzlo": 6881,
      "Ġwolno": 6882,
      "ĠwÅĤasnego": 6883,
      "ĠPowia": 6884,
      "ĠhistoriÄĻ": 6885,
      "Ġpsychi": 6886,
      "ĠIr": 6887,
      "ĠKro": 6888,
      "ĠsÅĤuÅ¼y": 6889,
      "rowi": 6890,
      "burg": 6891,
      "ĠpÅĤ": 6892,
      "Osta": 6893,
      "Å¼bie": 6894,
      "ĠKawa": 6895,
      "Ġproducenta": 6896,
      "ÅĤgar": 6897,
      "Ġseksual": 6898,
      "ĠpociÄħ": 6899,
      "Ġmoich": 6900,
      "EC": 6901,
      "Ġprzepisy": 6902,
      "owanej": 6903,
      "Ġistnia": 6904,
      "riu": 6905,
      "Ġnasza": 6906,
      "rzeniem": 6907,
      "chaÄĩ": 6908,
      "Ġstyczniu": 6909,
      "ligen": 6910,
      "nden": 6911,
      "zyg": 6912,
      "ĠprojektÃ³w": 6913,
      "ĠsamorzÄħd": 6914,
      "ĠKarol": 6915,
      "low": 6916,
      "Ġklasztor": 6917,
      "Ġnieprzy": 6918,
      "ĠPau": 6919,
      "ĠwyglÄħd": 6920,
      "ĠpiÅĤce": 6921,
      "Ġzaawansowa": 6922,
      "ĠParyÅ¼u": 6923,
      "ĠsprzÄĻt": 6924,
      "ords": 6925,
      "Ġpobiera": 6926,
      "Ġwybrany": 6927,
      "ĠmiÄĻÅĽni": 6928,
      "Ġorganizmu": 6929,
      "Ġspodzie": 6930,
      "DziaÅĤa": 6931,
      "Ġbal": 6932,
      "Produ": 6933,
      "ÅĽwiÄĻt": 6934,
      "ĠwyÅĽwietla": 6935,
      "Ġelegan": 6936,
      "ĠJezusa": 6937,
      "Ġcele": 6938,
      "Ġkilome": 6939,
      "ĠdecyzjÄĻ": 6940,
      "zjo": 6941,
      "Äį": 6942,
      "ĠspotkaÅĦ": 6943,
      "ĠleÅ¼Äħ": 6944,
      "ĠwypÅĤa": 6945,
      "our": 6946,
      "tymi": 6947,
      "Ġzgody": 6948,
      "Ġilu": 6949,
      "Ġczerwcu": 6950,
      "ĠdokumentÃ³w": 6951,
      "Ġkopa": 6952,
      "ĠMarcin": 6953,
      "Ġtrzecie": 6954,
      "ĠwyksztaÅĤ": 6955,
      "Ġlegen": 6956,
      "Ġobrony": 6957,
      "ĠAna": 6958,
      "boga": 6959,
      "czoÅĽÄĩ": 6960,
      "Ġdruga": 6961,
      "Ġpartne": 6962,
      "Ġwyprodu": 6963,
      "ĠBio": 6964,
      "Ġwystarcza": 6965,
      "wcze": 6966,
      "ciÅĤa": 6967,
      "ĠdowÃ³dz": 6968,
      "Ġnume": 6969,
      "Ġedycji": 6970,
      "cheo": 6971,
      "AmerykaÅĦskie": 6972,
      "tacjÄĻ": 6973,
      "Ġroma": 6974,
      "ĠukoÅĦczyÅĤ": 6975,
      "dujÄħ": 6976,
      "emu": 6977,
      "Ġterytorium": 6978,
      "ĠuÅĽmie": 6979,
      "ĠpacjentÃ³w": 6980,
      "edy": 6981,
      "ĠSkar": 6982,
      "ĠuzaleÅ¼": 6983,
      "kter": 6984,
      "Ġwzor": 6985,
      "Ġpracowni": 6986,
      "skokatoli": 6987,
      "obo": 6988,
      "Ġgatunek": 6989,
      "Ġmur": 6990,
      "Ġcha": 6991,
      "yer": 6992,
      "ĠZam": 6993,
      "Ġdanej": 6994,
      "Ġrecen": 6995,
      "ĠwysokoÅĽÄĩ": 6996,
      "Ġtygodniu": 6997,
      "ĠrozpoczÄĻÅĤa": 6998,
      "samowi": 6999,
      "ĠniezbÄĻdne": 7000,
      "ĠMam": 7001,
      "ĠSzkoÅĤa": 7002,
      "Ġzaprasza": 7003,
      "fera": 7004,
      "ĠdÅĤugoÅĽÄĩ": 7005,
      "pp": 7006,
      "pole": 7007,
      "stawia": 7008,
      "Ġport": 7009,
      "strÃ³w": 7010,
      "Ġunie": 7011,
      "ĠWÅĽrÃ³d": 7012,
      "ĠzmieniÄĩ": 7013,
      "ĠbudynkÃ³w": 7014,
      "Ġkorzystania": 7015,
      "Ġestety": 7016,
      "Ġfinansowa": 7017,
      "Ġunik": 7018,
      "nowo": 7019,
      "ĠÅ»ydÃ³w": 7020,
      "Ġkarty": 7021,
      "ĠPrezyden": 7022,
      "Ġstosuje": 7023,
      "ĠwyraÅ¼a": 7024,
      "Ġalterna": 7025,
      "ĠwnÄĻtrz": 7026,
      "Ġnacze": 7027,
      "Ġniespo": 7028,
      "ĠzmarÅĤ": 7029,
      "IC": 7030,
      "Ġtworzenia": 7031,
      "Ġrozm": 7032,
      "mujÄħc": 7033,
      "Ġrodzinie": 7034,
      "Ġataku": 7035,
      "Ġprzekracza": 7036,
      "cjalna": 7037,
      "czami": 7038,
      "ĠrÄħ": 7039,
      "ĠwodÄħ": 7040,
      "Ġzasadzie": 7041,
      "KaÅ¼": 7042,
      "ĠUniversi": 7043,
      "ĠpostÄĻpowania": 7044,
      "Ġciekawe": 7045,
      "ĠzarzÄħdzania": 7046,
      "Ġprzeby": 7047,
      "ĠBÃ³g": 7048,
      "ĠDow": 7049,
      "Ġroczni": 7050,
      "ĠZespÃ³ÅĤ": 7051,
      "decznie": 7052,
      "kiet": 7053,
      "niona": 7054,
      "ĠwschÃ³d": 7055,
      "ĠÅĤ": 7056,
      "Ġrach": 7057,
      "fel": 7058,
      "Ġmoja": 7059,
      "lizacja": 7060,
      "ĠdzieÅĤa": 7061,
      "czak": 7062,
      "Ġwyz": 7063,
      "ĠAs": 7064,
      "Ġprepara": 7065,
      "Ġmusisz": 7066,
      "Ġkome": 7067,
      "Ġkomunikacji": 7068,
      "idy": 7069,
      "Ġbrzu": 7070,
      "op": 7071,
      "szÃ³w": 7072,
      "Ġsierp": 7073,
      "ĠPierwszy": 7074,
      "Ġwzrostu": 7075,
      "ĠStrze": 7076,
      "tkach": 7077,
      "ĠmÅĤod": 7078,
      "Ġwynagro": 7079,
      "ceum": 7080,
      "ĠprzeszedÅĤ": 7081,
      "chia": 7082,
      "ĠmiÅĤoÅĽÄĩ": 7083,
      "Ġwniosku": 7084,
      "lope": 7085,
      "ĠdÅĤo": 7086,
      "lonym": 7087,
      "nujÄħ": 7088,
      "For": 7089,
      "ĠÅĽlÄħ": 7090,
      "Ġpunkty": 7091,
      "%.": 7092,
      "szona": 7093,
      "Ġuzasa": 7094,
      "ĠwkrÃ³tce": 7095,
      "ĠzewnÄħtrz": 7096,
      "pina": 7097,
      "Ġodrzu": 7098,
      "Ġryzyko": 7099,
      "ĠuÅ¼yciu": 7100,
      "dzina": 7101,
      "ĠksztaÅĤt": 7102,
      "ĠdodaÄĩ": 7103,
      "lenda": 7104,
      "tari": 7105,
      "nkowo": 7106,
      "Åºnia": 7107,
      "Ġmarcu": 7108,
      "ĠgÅĤa": 7109,
      "ĠzwrÃ³ciÄĩ": 7110,
      "Ġogranicza": 7111,
      "AG": 7112,
      "ĠkrÃ³lew": 7113,
      "Ġtemperatury": 7114,
      "ĠGminy": 7115,
      "Ġintegra": 7116,
      "lnymi": 7117,
      "Ġczasami": 7118,
      "ÃĵW": 7119,
      "dliwoÅĽci": 7120,
      "Ã³dÅº": 7121,
      "ĠpiÄĻciu": 7122,
      "ĠInterne": 7123,
      "Ġzato": 7124,
      "ĠHenryk": 7125,
      "ĠÅĽwietnie": 7126,
      ".âĢĿ": 7127,
      "Ġumy": 7128,
      "ĠFrancu": 7129,
      "ĠogÃ³lno": 7130,
      "tytu": 7131,
      "SS": 7132,
      "ĠÅģu": 7133,
      "Ġmedali": 7134,
      "Ġterminie": 7135,
      "ĠuÅ¼ytku": 7136,
      "ĠSka": 7137,
      "Ġtransa": 7138,
      "Ġkolek": 7139,
      "Ġwsparcie": 7140,
      "Ġuzbro": 7141,
      "ĠÅĤÄħcznie": 7142,
      "Ġwierz": 7143,
      "ĠPO": 7144,
      "Ġpodstawowych": 7145,
      "Ġref": 7146,
      "ĠDom": 7147,
      "ĠBlu": 7148,
      "ĠczÄħ": 7149,
      "nemu": 7150,
      "ĠzwiÄħzek": 7151,
      "fal": 7152,
      "ĠdostÄĻpu": 7153,
      "Ne": 7154,
      "Ġwidzenia": 7155,
      "ĠlÄĻ": 7156,
      "Ġepo": 7157,
      "Ġmojego": 7158,
      "Ġportalu": 7159,
      "ĠzbiÃ³r": 7160,
      "Ġskaza": 7161,
      "ĠÅģÄħ": 7162,
      "Ġzbo": 7163,
      "Ġznaczy": 7164,
      "ĠniepeÅĤnospraw": 7165,
      "Ġorganizm": 7166,
      "ĠCam": 7167,
      "los": 7168,
      "ÅĤgorza": 7169,
      "ĠmÅĤodzieÅ¼": 7170,
      "nujÄħc": 7171,
      "rzec": 7172,
      "ĠodpowiedzialnoÅĽci": 7173,
      "Ġ>": 7174,
      "ĠChrystusa": 7175,
      "Ġregionu": 7176,
      "cymi": 7177,
      "ĠEdu": 7178,
      "Ġrosyjski": 7179,
      "Ġponadto": 7180,
      "Ġmiejscem": 7181,
      "Ġelement": 7182,
      "ĠgÅĤoÅĽ": 7183,
      "stycznych": 7184,
      "ĠpuÅĤk": 7185,
      "Ġpw": 7186,
      "ĠgÅĤÃ³wnej": 7187,
      "ĠOlszty": 7188,
      "ĠGol": 7189,
      "Ġresz": 7190,
      "Ġrecep": 7191,
      "Ġskutek": 7192,
      "lanie": 7193,
      "Ġcieszy": 7194,
      "ĠÅĤÄħczÄħ": 7195,
      "perium": 7196,
      "Ġinstytucji": 7197,
      "Ġzmo": 7198,
      "Ġprzegra": 7199,
      "wersa": 7200,
      "Ġstatysty": 7201,
      "ĠPrac": 7202,
      "Pos": 7203,
      "woka": 7204,
      "ĠstaÄĩ": 7205,
      "tter": 7206,
      "Ġnur": 7207,
      "ĠSpa": 7208,
      "lacje": 7209,
      "ĠStre": 7210,
      "Ġdzielnicy": 7211,
      "zno": 7212,
      "ĠwÅĤosy": 7213,
      "piec": 7214,
      "mum": 7215,
      "ĠrosnÄħ": 7216,
      "ĠpÃ³ÅĤnocno": 7217,
      "dzieli": 7218,
      "metr": 7219,
      "ĠwyÅ¼ej": 7220,
      "zowania": 7221,
      "Ġgrudniu": 7222,
      "Ġsamych": 7223,
      "Ġgwiazd": 7224,
      "ĠposÅĤu": 7225,
      "ĠdrogÄĻ": 7226,
      "ĠLondynie": 7227,
      "ĠWielki": 7228,
      "ÅĤoÅ¼y": 7229,
      "Ġoperacji": 7230,
      "ĠdÄħ": 7231,
      "ĠGospodar": 7232,
      "Ġmodu": 7233,
      "ĠÅĽcie": 7234,
      "Ġvi": 7235,
      "Kiedy": 7236,
      "vel": 7237,
      "Ġzadanie": 7238,
      "ĠÅĽcieÅ¼": 7239,
      "Ġczele": 7240,
      "rka": 7241,
      "ĠWielkiego": 7242,
      "ĠduÅ¼a": 7243,
      "Ġwspomaga": 7244,
      "Ġwizer": 7245,
      "Ġlist": 7246,
      "ĠpowiÄħza": 7247,
      "lowe": 7248,
      "kaz": 7249,
      "eken": 7250,
      "doba": 7251,
      "stii": 7252,
      "Ġherba": 7253,
      "ĠsprawdziÄĩ": 7254,
      "kÅĤadni": 7255,
      "Ġdziew": 7256,
      "Ġdobrej": 7257,
      "han": 7258,
      "Ġpodatk": 7259,
      "ĠWarszawskiego": 7260,
      "ĠÅĽnie": 7261,
      "mow": 7262,
      "luje": 7263,
      "Ġzakupu": 7264,
      "Ġizo": 7265,
      "Ġmg": 7266,
      "ĠbezpieczeÅĦstwo": 7267,
      "ĠPy": 7268,
      "Ġpoto": 7269,
      "koÅĤo": 7270,
      "nowy": 7271,
      "ĠCD": 7272,
      "enty": 7273,
      "pto": 7274,
      "ĠStefa": 7275,
      "ĠgÅĤosowa": 7276,
      "ĠskÃ³rÄĻ": 7277,
      "ĠRzeczpospolita": 7278,
      "Ġspis": 7279,
      "ĠOchro": 7280,
      "Ġniemieckiej": 7281,
      "ĠKonkur": 7282,
      "ĠdostÄĻpny": 7283,
      "Ġliteratury": 7284,
      "owanego": 7285,
      "oke": 7286,
      "Ġniezwyk": 7287,
      "lio": 7288,
      "Ġujaw": 7289,
      "Ġtech": 7290,
      "Ġnieprze": 7291,
      "ĠHy": 7292,
      "ĠGdaÅĦsku": 7293,
      "Ġwydawni": 7294,
      "??": 7295,
      "ĠgÅĤosÃ³w": 7296,
      "uch": 7297,
      "Ġpremiera": 7298,
      "ĠaktywnoÅĽci": 7299,
      "ĠrÃ³": 7300,
      "Ġulega": 7301,
      "Ġfaktu": 7302,
      "Ġwybi": 7303,
      "fikacja": 7304,
      "Ġprzysta": 7305,
      "Ġosobist": 7306,
      "niowych": 7307,
      "Ġmobil": 7308,
      "ĠÅļwi": 7309,
      "ĠKle": 7310,
      "ĠSha": 7311,
      "Å¼onej": 7312,
      "Ġoli": 7313,
      "Ġminima": 7314,
      "ĠPuchar": 7315,
      "ĠbÅĤy": 7316,
      "Ġspecjalne": 7317,
      "Ġpremier": 7318,
      "Ġniena": 7319,
      "Ġwydane": 7320,
      "Gru": 7321,
      "logicznej": 7322,
      "ĠpÅĤatnoÅĽci": 7323,
      "Ġwykry": 7324,
      "ĠKowa": 7325,
      "Ġwybrze": 7326,
      "ĠdolarÃ³w": 7327,
      "Ġfirmie": 7328,
      "Ġprzetwarzania": 7329,
      "ĠzuÅ¼y": 7330,
      "ĠokazaÅĤo": 7331,
      "Ġfabu": 7332,
      "ĠOgÃ³lno": 7333,
      "ĠVo": 7334,
      "Ġpodwo": 7335,
      "sport": 7336,
      "ĠInstytutu": 7337,
      "Ġmary": 7338,
      "dam": 7339,
      "Ġkolum": 7340,
      "Ġfundu": 7341,
      "Ġrefor": 7342,
      "Ġeksploa": 7343,
      "ĠszeÅĽÄĩ": 7344,
      "ĠpowstaÅĤy": 7345,
      "Ġcech": 7346,
      "ĠzakoÅĦczyÅĤ": 7347,
      "ĠHam": 7348,
      "ĠJerzego": 7349,
      "ĠKre": 7350,
      "ĠprzedsiÄĻbiorstwa": 7351,
      "Ġpoby": 7352,
      "ĠSal": 7353,
      "skimi": 7354,
      "Ġmaj": 7355,
      "popular": 7356,
      "Ġuczelni": 7357,
      "ĠÅ¼adnego": 7358,
      "nnie": 7359,
      "Ġwykonanie": 7360,
      "Ġstosowane": 7361,
      "Ġpp": 7362,
      "Ġkontaktu": 7363,
      "Ġlekkoatle": 7364,
      "ĠkoÅĦczy": 7365,
      "ĠPiechoty": 7366,
      "Ġoparciu": 7367,
      "ĠWindows": 7368,
      "Ġsaty": 7369,
      "ĠtuÅ¼": 7370,
      "Ġigrzy": 7371,
      "bine": 7372,
      "Ġfunkcjonu": 7373,
      "ĠprzedÅĤu": 7374,
      "bsolu": 7375,
      "Dru": 7376,
      "Ġspecjalisty": 7377,
      "ĠJacek": 7378,
      "ĠwÄħtpliwoÅĽci": 7379,
      "Ġpodobne": 7380,
      "Ġspecyfi": 7381,
      "lti": 7382,
      "ĠkoniecznoÅĽci": 7383,
      "ĠMiasto": 7384,
      "Ġprocent": 7385,
      "budowy": 7386,
      "zmie": 7387,
      "ĠAb": 7388,
      "Ġspoj": 7389,
      "ĠofertÄĻ": 7390,
      "Ġdobrym": 7391,
      "Ġrozmawia": 7392,
      "ilka": 7393,
      "Ġpublicznej": 7394,
      "ĠgeneraÅĤ": 7395,
      "Ġodebra": 7396,
      "Ġzba": 7397,
      "ĠwykorzystaÄĩ": 7398,
      "ĠKrÃ³lestwa": 7399,
      "Bra": 7400,
      "ByÅĤ": 7401,
      "ÅĤkow": 7402,
      "Ġwielki": 7403,
      "ĠZwy": 7404,
      "ĠwstÄĻp": 7405,
      "ston": 7406,
      "Ġdomy": 7407,
      "Ġklimaty": 7408,
      "ĠprowadziÅĤ": 7409,
      "ĠKoÅĽcie": 7410,
      "gady": 7411,
      "ĠpozycjÄĻ": 7412,
      "wiera": 7413,
      "ntro": 7414,
      "portu": 7415,
      "ĠwydarzeÅĦ": 7416,
      "kiedy": 7417,
      "ĠznÃ³w": 7418,
      "Ġuzyskania": 7419,
      "ĠbÃ³": 7420,
      "Ġzdobywa": 7421,
      "lista": 7422,
      "ĠspÅĤa": 7423,
      "ĠnajwaÅ¼niejszych": 7424,
      "Ġwielkie": 7425,
      "rur": 7426,
      "ĠwÄĻd": 7427,
      "Ġserwis": 7428,
      "OB": 7429,
      "ĠzajÄĻÄĩ": 7430,
      "gowych": 7431,
      "unt": 7432,
      "ĠPozosta": 7433,
      "mÅĤod": 7434,
      "pem": 7435,
      "Ġrzymskokatoli": 7436,
      "chody": 7437,
      "ĠzginÄĻ": 7438,
      "stal": 7439,
      "Ġdzwo": 7440,
      "ĠMona": 7441,
      "ĠPracy": 7442,
      "Ġspecjalnie": 7443,
      "ding": 7444,
      "Ġwydania": 7445,
      "ĠpaÅºdzierniku": 7446,
      "Ġznanych": 7447,
      "padzie": 7448,
      "ĠkarierÄĻ": 7449,
      "ĠStowarzyszenia": 7450,
      "Ġlipcu": 7451,
      "Ġwalce": 7452,
      "Ġbitwie": 7453,
      "Ġlekar": 7454,
      "gowy": 7455,
      "ĠwydaÅĤ": 7456,
      "rzaÅĤ": 7457,
      "Ġswej": 7458,
      "Ġniemieckiego": 7459,
      "Ġwydany": 7460,
      "Ġniemieckich": 7461,
      "ĠGrand": 7462,
      "niczy": 7463,
      "pry": 7464,
      "Ġgor": 7465,
      "cuje": 7466,
      "ĠprÃ³bu": 7467,
      "ĠPolskie": 7468,
      "tyczna": 7469,
      "deracji": 7470,
      "Ã³wki": 7471,
      "ÅĽwie": 7472,
      "jnym": 7473,
      "tce": 7474,
      "bÃ³r": 7475,
      "zowanie": 7476,
      "tte": 7477,
      "dzonej": 7478,
      "ĠPrawo": 7479,
      "polskiego": 7480,
      "obi": 7481,
      "ĠTylko": 7482,
      "czonÄħ": 7483,
      "Ġtowar": 7484,
      "Ġmedycy": 7485,
      "Ġzadba": 7486,
      "kanie": 7487,
      "nista": 7488,
      "ĠwiedzÄĻ": 7489,
      "Ġwir": 7490,
      "ĠBiaÅĤoru": 7491,
      "ĠpeÅĤno": 7492,
      "niÄĻte": 7493,
      "ĠAust": 7494,
      "ĠmieszkaÅĦcy": 7495,
      "tyku": 7496,
      "czyÅĦski": 7497,
      "nÄĻÅĤy": 7498,
      "ĠreÅ¼yserii": 7499,
      "Ġprofesor": 7500,
      "Ġreal": 7501,
      "Ġzarzu": 7502,
      "tary": 7503,
      "ĠszkoÅĤa": 7504,
      "htm": 7505,
      "ĠobjÄħÅĤ": 7506,
      "Ġitd": 7507,
      "zia": 7508,
      "ĠZu": 7509,
      "Ġkod": 7510,
      "Ġpewnym": 7511,
      "ĠskÅĤadnikÃ³w": 7512,
      "niny": 7513,
      "ĠstosowaÄĩ": 7514,
      "ĠPÃ³Åºniej": 7515,
      "Ġpilo": 7516,
      "ĠBrze": 7517,
      "Ġodnale": 7518,
      "ĠWyda": 7519,
      "ĠWtedy": 7520,
      "ĠcaÅĤkiem": 7521,
      "lom": 7522,
      "Ġtrening": 7523,
      "nieÅĦ": 7524,
      "dziaÅĤy": 7525,
      "nowu": 7526,
      "ĠStrona": 7527,
      "Ġzwal": 7528,
      "ĠobrÄĻbie": 7529,
      "----": 7530,
      "wiaÄĩ": 7531,
      "ĠwiÄĻkszej": 7532,
      "Ad": 7533,
      "Ġreak": 7534,
      "Miejsc": 7535,
      "ĠTakie": 7536,
      "Ġokolicach": 7537,
      "Ġpisze": 7538,
      "Ġste": 7539,
      "ĠKomitetu": 7540,
      "ÅĤasza": 7541,
      "Ġdrewna": 7542,
      "Ġgaze": 7543,
      "ĠÅĽrodku": 7544,
      "Bryty": 7545,
      "ben": 7546,
      "lowej": 7547,
      "Ġwymienia": 7548,
      "Ġniedaw": 7549,
      "Ġszkla": 7550,
      "ĠzachÃ³d": 7551,
      "dzieÅ¼y": 7552,
      "ĠJose": 7553,
      "Ġsalo": 7554,
      "xi": 7555,
      "Ġuniwersyte": 7556,
      "ĠwiÄĻkszych": 7557,
      "vy": 7558,
      "owanym": 7559,
      "Ġmalar": 7560,
      "ĠzabytkÃ³w": 7561,
      "lonia": 7562,
      "ĠudziaÅĤem": 7563,
      "sora": 7564,
      "ĠwiedzieÄĩ": 7565,
      "ĠJagiel": 7566,
      "bla": 7567,
      "Ġzanim": 7568,
      "the": 7569,
      "ĠbÃ³l": 7570,
      "Ġpublicznych": 7571,
      "Ġstoi": 7572,
      "ĠMistrz": 7573,
      "ĠRadzie": 7574,
      "sma": 7575,
      "ĠFin": 7576,
      "Ġwsparcia": 7577,
      "Ġporno": 7578,
      "ĠInternet": 7579,
      "iny": 7580,
      "Ġpotrzebne": 7581,
      "ĠOlimpijskich": 7582,
      "Ġpapier": 7583,
      "Ġlubel": 7584,
      "ĠAndrzeja": 7585,
      "ye": 7586,
      "gÃ³ÅĤy": 7587,
      "Ġkot": 7588,
      "ĠJanusz": 7589,
      "Ġzbi": 7590,
      "Ġwitry": 7591,
      "Ġpiosenki": 7592,
      "Ġprzeja": 7593,
      "sow": 7594,
      "Ġgospo": 7595,
      "Ġprecy": 7596,
      "ĠMosk": 7597,
      "ĠskrÃ³": 7598,
      "Ġprzeci": 7599,
      "tona": 7600,
      "Ġadre": 7601,
      "Ġprzesy": 7602,
      "Ġarcybisku": 7603,
      "ÄĻzy": 7604,
      "wic": 7605,
      "ĠPosiada": 7606,
      "Ġakcep": 7607,
      "Ġkultur": 7608,
      "Ġpodoba": 7609,
      "Ġmonitor": 7610,
      "Ġrej": 7611,
      "ĠNagrody": 7612,
      "ĠFrank": 7613,
      "ĠByÅĤa": 7614,
      "Ġekspery": 7615,
      "ĠpoÅĤudnie": 7616,
      "Ġrozgrywa": 7617,
      "ĠcaÅĤa": 7618,
      "Ġpru": 7619,
      "mira": 7620,
      "ĠspoÅĤecznej": 7621,
      "ĠNajwyÅ¼": 7622,
      "udo": 7623,
      "ĠpojazdÃ³w": 7624,
      "Ġutrzymy": 7625,
      "Ġzmniejsza": 7626,
      "ĠDanie": 7627,
      "ĠdzieciÄĻ": 7628,
      "ĠpowrÃ³ciÅĤ": 7629,
      "Ġkariery": 7630,
      "Ġwszelkich": 7631,
      "Tre": 7632,
      "logu": 7633,
      "ZE": 7634,
      "Ġ()": 7635,
      "ĠCan": 7636,
      "ĠstopieÅĦ": 7637,
      "Ġoceny": 7638,
      "Ġniech": 7639,
      "Ġpewnie": 7640,
      "Ġkoszt": 7641,
      "Ale": 7642,
      "Ġpublikacji": 7643,
      "ĠJaponii": 7644,
      "Ġsprowa": 7645,
      "ĠotrzymaÅĤa": 7646,
      "Ġwskazuje": 7647,
      "powszech": 7648,
      "ĠupÅĤy": 7649,
      "ĠNajÅĽwiÄĻt": 7650,
      "ĠroÅĽliny": 7651,
      "ĠzarzÄħdza": 7652,
      "Ġorganizacja": 7653,
      "ĠKrakowa": 7654,
      "ĠÅĤÄħczy": 7655,
      "Ġgatunku": 7656,
      "Ge": 7657,
      "czen": 7658,
      "Ġpromieni": 7659,
      "ĠWilhel": 7660,
      "Ġsprawdza": 7661,
      "Ġkonferencji": 7662,
      "ĠstaÅĤe": 7663,
      "Ġlidze": 7664,
      "ĠÅĤago": 7665,
      "Ġkonto": 7666,
      "mimo": 7667,
      "ĠAgen": 7668,
      "ĠwyraÅºnie": 7669,
      "ĠpÃ³ÅĤnocnej": 7670,
      "muni": 7671,
      "Ġimprezy": 7672,
      "Ġbazy": 7673,
      "Ġniesamowi": 7674,
      "Ġuj": 7675,
      "ĠAp": 7676,
      "Ġetapie": 7677,
      "Ġdystrybu": 7678,
      "Ġkwestii": 7679,
      "ĠÅĤatwiej": 7680,
      "Ġzachwy": 7681,
      "Ġposzu": 7682,
      "gnacji": 7683,
      "lory": 7684,
      "ĠPole": 7685,
      "owaÅĦ": 7686,
      "lwe": 7687,
      "ĠMedal": 7688,
      "Ġzamku": 7689,
      "Ġodcinku": 7690,
      "ĠGer": 7691,
      "Ġdiety": 7692,
      "Ġdokony": 7693,
      "Ġzaleca": 7694,
      "ĠpojawiajÄħ": 7695,
      "tana": 7696,
      "Przez": 7697,
      "ĠCity": 7698,
      "racja": 7699,
      "diÃ³w": 7700,
      "RA": 7701,
      "ĠmiesiÄħce": 7702,
      "ĠRecords": 7703,
      "Äĩmi": 7704,
      "ceÅĦ": 7705,
      "Ġarchitek": 7706,
      "Ġsierpniu": 7707,
      "Aby": 7708,
      "ĠwyjÄħtkowo": 7709,
      "Å¼onym": 7710,
      "ĠwodÄĻ": 7711,
      "Ġpoeta": 7712,
      "Ġbizne": 7713,
      "tyfikowa": 7714,
      "lania": 7715,
      "ĠnagrodÄĻ": 7716,
      "Ġinteligen": 7717,
      "arka": 7718,
      "ĠkrÃ³le": 7719,
      "ĠgÅĤos": 7720,
      "ĠzaczÄĻÅĤa": 7721,
      "Ġlistopadzie": 7722,
      "Ġinstalacji": 7723,
      "Ġkali": 7724,
      "ras": 7725,
      "ĠzwiÄħzany": 7726,
      "ĠspoÅĤecznych": 7727,
      "Ġbiega": 7728,
      "owce": 7729,
      "fiÄĻ": 7730,
      "ĠInstytut": 7731,
      "Ġelementem": 7732,
      "Ġcechy": 7733,
      "Ġnagro": 7734,
      "Ġodbi": 7735,
      "ĠwygraÅĤ": 7736,
      "ĠdrÃ³g": 7737,
      "Ġznaczenia": 7738,
      "ĠsÄħd": 7739,
      "Ġzagranicznych": 7740,
      "bienie": 7741,
      "Ġparku": 7742,
      "Ġtradycji": 7743,
      "ĠprzyÅĤÄħ": 7744,
      "jki": 7745,
      "Ġkwietniu": 7746,
      "Ġprywatne": 7747,
      "Ġkwar": 7748,
      "ĠZacho": 7749,
      "regu": 7750,
      "Ġkory": 7751,
      "wamy": 7752,
      "logicznego": 7753,
      "Ġzorganizowa": 7754,
      "cea": 7755,
      "Ġund": 7756,
      "ĠMil": 7757,
      "Ġefekty": 7758,
      "ĠOpera": 7759,
      "ĠAzji": 7760,
      "Ġskali": 7761,
      "ĠusÅĤy": 7762,
      "Ġrozmowy": 7763,
      "ĠKie": 7764,
      "ĠFu": 7765,
      "ĠpÃ³ÅĤnocy": 7766,
      "drze": 7767,
      "ming": 7768,
      "mnieÄĩ": 7769,
      "Ġgospodarki": 7770,
      "PL": 7771,
      "Ġkonieczne": 7772,
      "inte": 7773,
      "Ġopozy": 7774,
      "ĠSzu": 7775,
      "ĠkoÅĽciele": 7776,
      "Ġrzadko": 7777,
      "Ġwideo": 7778,
      "Ġzasko": 7779,
      "BA": 7780,
      "Ġkompe": 7781,
      "Ġznakomi": 7782,
      "Ku": 7783,
      "pka": 7784,
      "mowany": 7785,
      "ĠRozpo": 7786,
      "Ġprowincji": 7787,
      "szeni": 7788,
      "Ġostate": 7789,
      "dzkim": 7790,
      "Ġopu": 7791,
      "ĠuzupeÅĤ": 7792,
      "ĠpoÅĤoÅ¼one": 7793,
      "peu": 7794,
      "planowa": 7795,
      "lery": 7796,
      "Ġwysokie": 7797,
      "Ġtekstu": 7798,
      "ÅĤÄħd": 7799,
      "ĠchorÃ³b": 7800,
      "ĠpozwalajÄħ": 7801,
      "Ġmanda": 7802,
      "ĠLitera": 7803,
      "blo": 7804,
      "ĠdostÄĻpnych": 7805,
      "cus": 7806,
      "ĠWÅĤoch": 7807,
      "Ġwykonywania": 7808,
      "BC": 7809,
      "ĠdorosÅĤych": 7810,
      "Ġwyklu": 7811,
      "ĠgraÅĤ": 7812,
      "Ġzestawie": 7813,
      "gin": 7814,
      "wiga": 7815,
      "szewski": 7816,
      "Ġubo": 7817,
      "ĠMaÅĤgorza": 7818,
      "Ġwojna": 7819,
      "Ġ*": 7820,
      "ĠwynikÃ³w": 7821,
      "Ġpancer": 7822,
      "szeÅĦ": 7823,
      "ĠÅĽredniej": 7824,
      "Ġzabaw": 7825,
      "Ġdodatkowych": 7826,
      "yo": 7827,
      "pion": 7828,
      "Ġwydanie": 7829,
      "ĠczÄĻÅĽciowo": 7830,
      "rzyÅĤa": 7831,
      "ĠPaw": 7832,
      "ana": 7833,
      "Ġwzmacnia": 7834,
      "NY": 7835,
      "Ġstali": 7836,
      "Ġodwiedza": 7837,
      "Ġprzechodzi": 7838,
      "Ġosobowe": 7839,
      "lekt": 7840,
      "ĠFrydery": 7841,
      "macji": 7842,
      "ĠKarola": 7843,
      "ĠMin": 7844,
      "non": 7845,
      "Ġspotkaniu": 7846,
      "Ġprogramie": 7847,
      "tujemy": 7848,
      "ĠporÃ³wnaniu": 7849,
      "dzonego": 7850,
      "Ġkru": 7851,
      "zes": 7852,
      "hr": 7853,
      "ĠGor": 7854,
      "ĠciÄħgle": 7855,
      "Ġzabawy": 7856,
      "DZ": 7857,
      "Ġkated": 7858,
      "ĠpojawiÅĤ": 7859,
      "ĠWoj": 7860,
      "ĠzapewniÄĩ": 7861,
      "ĠpamiÄħ": 7862,
      "kopa": 7863,
      "Ġskutecznie": 7864,
      "zdra": 7865,
      "ÅĤama": 7866,
      "chach": 7867,
      "SC": 7868,
      "Ġrozegra": 7869,
      "Ġtymi": 7870,
      "Ġstolicy": 7871,
      "Åºli": 7872,
      "ĠBank": 7873,
      "wiono": 7874,
      "lcÃ³w": 7875,
      "Ġszac": 7876,
      "ĠBryty": 7877,
      "Ġsiedem": 7878,
      "JA": 7879,
      "ĠwÅĤasnym": 7880,
      "zan": 7881,
      "Ġzaburzenia": 7882,
      "dobne": 7883,
      "Ġmuzyka": 7884,
      "ĠEm": 7885,
      "fen": 7886,
      "ĠXIV": 7887,
      "Ġkoncert": 7888,
      "ĠRado": 7889,
      "Miasta": 7890,
      "pek": 7891,
      "ĠbyÅĤoby": 7892,
      "Ġekra": 7893,
      "Ġpowstanie": 7894,
      "mowane": 7895,
      "ĠJorku": 7896,
      "ĠAnt": 7897,
      "wiona": 7898,
      "stÄĻpuje": 7899,
      "dzkiej": 7900,
      "ckiem": 7901,
      "Ġsumie": 7902,
      "Ġteorii": 7903,
      "Ġowa": 7904,
      "bri": 7905,
      "ĠNorwe": 7906,
      "tum": 7907,
      "Ġprocesie": 7908,
      "niÅĤa": 7909,
      "Ġtwoje": 7910,
      "Ġprezes": 7911,
      "ney": 7912,
      "ĠzespoÅĤy": 7913,
      "Ġtelefon": 7914,
      "ĠElÅ¼bie": 7915,
      "Ġprowadzenie": 7916,
      "Ġzmiana": 7917,
      "Ġmatka": 7918,
      "Ġsilnik": 7919,
      "Ġzdarza": 7920,
      "mowych": 7921,
      "kowskiej": 7922,
      "Ġmalu": 7923,
      "ĠCla": 7924,
      "dzis": 7925,
      "Be": 7926,
      "ĠIN": 7927,
      "dnienie": 7928,
      "Ġzamieszki": 7929,
      "ĠRepubliki": 7930,
      "ĠkrzyÅ¼": 7931,
      "ĠNawet": 7932,
      "niesieniu": 7933,
      "........": 7934,
      "wnego": 7935,
      "Ġstronach": 7936,
      "Ġkosmi": 7937,
      "lli": 7938,
      "ĠPÃ³ÅĤnocnej": 7939,
      "Ġobron": 7940,
      "ĠprÃ³by": 7941,
      "Ġmazowie": 7942,
      "Ġkupu": 7943,
      "merica": 7944,
      "ĠktÃ³remu": 7945,
      "Ġkupi": 7946,
      "Ġprzeniesio": 7947,
      "ĠWscho": 7948,
      "ĠkapÅĤa": 7949,
      "Sto": 7950,
      "ĠKobie": 7951,
      "raÅ¼": 7952,
      "ĠNagroda": 7953,
      "ĠPrawa": 7954,
      "ĠpaÅĦstwo": 7955,
      "ĠVII": 7956,
      "ĠwziÄħÄĩ": 7957,
      "Ġpewien": 7958,
      "trzeÄĩ": 7959,
      "wis": 7960,
      "Ġewangeli": 7961,
      "ĠBoÅ¼ej": 7962,
      "Ġfilmowy": 7963,
      "ĠmiesiÄħc": 7964,
      "Ġprzygotowania": 7965,
      "rok": 7966,
      "ĠprzejÄĻ": 7967,
      "Ñı": 7968,
      "szono": 7969,
      "tnich": 7970,
      "bki": 7971,
      "Ġstabil": 7972,
      "ĠTri": 7973,
      "Ġzaopa": 7974,
      "Ġleczenie": 7975,
      "logiczny": 7976,
      "dowaÅĤ": 7977,
      "ĠAgnie": 7978,
      "bka": 7979,
      "Ġgaz": 7980,
      "Ġosobom": 7981,
      "Ġwoda": 7982,
      "Ġmuzyczne": 7983,
      "ĠMaciej": 7984,
      "ĠAmeryki": 7985,
      "Ġutwory": 7986,
      "ĠpowtÃ³": 7987,
      "rÃ³Å¼nic": 7988,
      "ĠWiÄĻkszoÅĽÄĩ": 7989,
      "wice": 7990,
      "ĠÅĤat": 7991,
      "rozu": 7992,
      "Ġsztuk": 7993,
      "Ġobiekty": 7994,
      "ĠzawodnikÃ³w": 7995,
      "Ġkonsekwen": 7996,
      "Ġposze": 7997,
      "nikach": 7998,
      "Ġobrazu": 7999,
      "nerzy": 8000,
      "Ġodczy": 8001,
      "gowe": 8002,
      "karka": 8003,
      "Ġuprze": 8004,
      "ĠdÅĤuÅ¼ej": 8005,
      "ĠpÅĤci": 8006,
      "mion": 8007,
      "Ġrozry": 8008,
      "ĠJakub": 8009,
      "zaleÅ¼": 8010,
      "Ġczasopis": 8011,
      "ĠczegoÅĽ": 8012,
      "Ġautorstwa": 8013,
      "ĠTwojej": 8014,
      "ĠmyÅĽlÄħ": 8015,
      "Ġartylerii": 8016,
      "ĠnarzÄĻdzia": 8017,
      "Ġkoncentra": 8018,
      "ĠukÅĤada": 8019,
      "ĠspoÅĤeczeÅĦstwa": 8020,
      "Ġzdrowie": 8021,
      "tanci": 8022,
      "towo": 8023,
      "ĠprowadziÄĩ": 8024,
      "ĠSprze": 8025,
      "Ġidealnie": 8026,
      "Ġmotyw": 8027,
      "ĠzaÅĤoÅ¼enia": 8028,
      "niorÃ³w": 8029,
      "Ġawansowa": 8030,
      "rena": 8031,
      "ĠwpÅĤywem": 8032,
      "ĠwÅĤaÅĽciciel": 8033,
      "ĠodbÄĻdzie": 8034,
      "dziem": 8035,
      "ĠuÅ¼ywane": 8036,
      "stanie": 8037,
      "Ġkontek": 8038,
      "Ġzastanawia": 8039,
      "way": 8040,
      "ĠprzeszÅĤoÅĽci": 8041,
      "Ġcenie": 8042,
      "ĠzwyciÄĻstwo": 8043,
      "Ġnaturalne": 8044,
      "twor": 8045,
      "Ġtereny": 8046,
      "ĠsporzÄħ": 8047,
      "ĠrÃ³wnowa": 8048,
      "Ġwzajem": 8049,
      "ĠâĨĴ": 8050,
      "Ġlikwi": 8051,
      "Ġzer": 8052,
      "Ġodpad": 8053,
      "Ġsubstancji": 8054,
      "ĠkawaÅĤ": 8055,
      "waga": 8056,
      "mus": 8057,
      "Ġhod": 8058,
      "ÅĦcy": 8059,
      "ĠgÅĤÃ³wny": 8060,
      "nowski": 8061,
      "Samo": 8062,
      "ĠKru": 8063,
      "ĠpoÅĤudniowej": 8064,
      "styczny": 8065,
      "pan": 8066,
      "Ġekspo": 8067,
      "bis": 8068,
      "niesienie": 8069,
      "Ġpojazdu": 8070,
      "Ġzastrze": 8071,
      "ĠprogramÃ³w": 8072,
      "Ġkonkursie": 8073,
      "ĠwysiÅĤ": 8074,
      "Ġpracuje": 8075,
      "MP": 8076,
      "Ġprzebywa": 8077,
      "Ġterenu": 8078,
      "Ġobejmu": 8079,
      "ziem": 8080,
      "stian": 8081,
      "ĠtekstÃ³w": 8082,
      "ĠJagiello": 8083,
      "ĠKazimierza": 8084,
      "Ġzlokali": 8085,
      "Å¼yÅĤa": 8086,
      "Ġpomimo": 8087,
      "via": 8088,
      "Ġlicznych": 8089,
      "Ġprzyspie": 8090,
      "ĠÅ¼yci": 8091,
      "ĠGrzegorz": 8092,
      "ĠutwÃ³r": 8093,
      "Ġstosunkowo": 8094,
      "taÅĤ": 8095,
      "ue": 8096,
      "lop": 8097,
      "Ġratu": 8098,
      "ĠciepÅĤa": 8099,
      "Ġodpo": 8100,
      "Ġpropo": 8101,
      "ĠÅĤaci": 8102,
      "Ġsprawa": 8103,
      "Ġwam": 8104,
      "ĠodrÄĻb": 8105,
      "ĠFacebo": 8106,
      "Ġnara": 8107,
      "sje": 8108,
      "ĠkaÅ¼dÄħ": 8109,
      "ĠMedy": 8110,
      "ĠnawiÄħza": 8111,
      "Ġzamy": 8112,
      "ÅĤoÅ¼enie": 8113,
      "Ġnieod": 8114,
      "ĠwÄĻgier": 8115,
      "ĠÅ¼u": 8116,
      "dzka": 8117,
      "ĠMikoÅĤaja": 8118,
      "Ġtelefoni": 8119,
      "ĠwiedzÄħ": 8120,
      "Ġbank": 8121,
      "mentach": 8122,
      "ĠMate": 8123,
      "Ġweeken": 8124,
      "zbi": 8125,
      "ĠGali": 8126,
      "szli": 8127,
      "Ġtrasy": 8128,
      "Ġlutym": 8129,
      "Ġzarazem": 8130,
      "Ġwielokrotnie": 8131,
      "ĠSzczeci": 8132,
      "tnikÃ³w": 8133,
      "ield": 8134,
      "Ġindywidualnych": 8135,
      "czoraj": 8136,
      "ĠRafa": 8137,
      "ĠSzwajcar": 8138,
      "Ġposie": 8139,
      "bru": 8140,
      "lacjÄĻ": 8141,
      "ĠKatowicach": 8142,
      "ĠpÅĤu": 8143,
      "Ġpodstawowe": 8144,
      "Ġlite": 8145,
      "ĠniezaleÅ¼nie": 8146,
      "ĠpoznaÄĩ": 8147,
      "ĠAdama": 8148,
      "ĠchÄĻtnie": 8149,
      "wiÅĤa": 8150,
      "ĠVAT": 8151,
      "Ġneuro": 8152,
      "ĠKrzyÅ¼a": 8153,
      "terem": 8154,
      "rÃ³Å¼nia": 8155,
      "ĠkorzyÅĽci": 8156,
      "Ġprojekty": 8157,
      "Ġosiem": 8158,
      "ĠposeÅĤ": 8159,
      "ĠRosy": 8160,
      "sc": 8161,
      "Temat": 8162,
      "Ġprawem": 8163,
      "Ġmatki": 8164,
      "czanie": 8165,
      "Ġwspom": 8166,
      "Ġinfrastru": 8167,
      "sse": 8168,
      "Ġnapa": 8169,
      "steÅĽmy": 8170,
      "Ġrodzice": 8171,
      "Ġtechniczne": 8172,
      "Ġteni": 8173,
      "ĠAleksander": 8174,
      "szÅĤy": 8175,
      "ree": 8176,
      "Ġgodzinach": 8177,
      "mani": 8178,
      "pus": 8179,
      "ersja": 8180,
      "Ġobywatel": 8181,
      "Ġwarstw": 8182,
      "Ġsos": 8183,
      "Ġzapraszamy": 8184,
      "rei": 8185,
      "sÅĤem": 8186,
      "Ġfry": 8187,
      "Ġwychodzi": 8188,
      "Ġprzepisa": 8189,
      "Ġoddzie": 8190,
      "Ġzago": 8191,
      "ĠHistoria": 8192,
      "dalem": 8193,
      "ĠdziewiÄĻ": 8194,
      "ĠHonor": 8195,
      "Ġredu": 8196,
      "ĠTrybu": 8197,
      "ĠWiele": 8198,
      "DziÄĻki": 8199,
      "Ġalbumu": 8200,
      "ĠnajwyÅ¼szej": 8201,
      "ĠmÃ³wiÅĤ": 8202,
      "Ġwoka": 8203,
      "Ġoptyma": 8204,
      "Nazwa": 8205,
      "ĠÅ¼Äħ": 8206,
      "ĠpaÅĤa": 8207,
      "ĠLip": 8208,
      "ĠTour": 8209,
      "Ġsied": 8210,
      "ĠKlub": 8211,
      "ĠJack": 8212,
      "Ġwoli": 8213,
      "zar": 8214,
      "Ġmowa": 8215,
      "ĠsprawÄħ": 8216,
      "pitu": 8217,
      "ĠWia": 8218,
      "FA": 8219,
      "ĠstÄħd": 8220,
      "prawdopo": 8221,
      "Ġdwoma": 8222,
      "NIE": 8223,
      "OG": 8224,
      "ĠlistÄĻ": 8225,
      "ĠnajmÅĤod": 8226,
      "Ġzasadni": 8227,
      "ĠPRL": 8228,
      "ĠUSS": 8229,
      "ĠPoczÄħtkowo": 8230,
      "Ġtygodnia": 8231,
      "Ġura": 8232,
      "ĠJezus": 8233,
      "czce": 8234,
      "Ġotacza": 8235,
      "wro": 8236,
      "udi": 8237,
      "Ġistnienia": 8238,
      "Ġistotne": 8239,
      "Ġpozwo": 8240,
      "ĠformÄĻ": 8241,
      "Ġzapach": 8242,
      "nÄĻÅĤo": 8243,
      "ĠrÃ³wnie": 8244,
      "basa": 8245,
      "Ġpraktyce": 8246,
      "iach": 8247,
      "ĠzdjÄĻcie": 8248,
      "mowaÅĤa": 8249,
      "Ġrock": 8250,
      "Ġautora": 8251,
      "Ġzamor": 8252,
      "ĠwykonaÄĩ": 8253,
      "Ġsamodzielnie": 8254,
      "nowe": 8255,
      "ĠPrzemy": 8256,
      "Ġdwukrotnie": 8257,
      "gal": 8258,
      "Ġopisy": 8259,
      "Ġpropa": 8260,
      "Ġbiu": 8261,
      "walifikowa": 8262,
      "ĠudostÄĻpnia": 8263,
      "ford": 8264,
      "sper": 8265,
      "ĠPen": 8266,
      "ĠoglÄħda": 8267,
      "kÅĤadem": 8268,
      "goÅĽÄĩ": 8269,
      "ranu": 8270,
      "ĠSek": 8271,
      "pomor": 8272,
      "wny": 8273,
      "Ġzaby": 8274,
      "ĠczÅĤonkowie": 8275,
      "owskich": 8276,
      "Ġsprzyja": 8277,
      "ĻĤ": 8278,
      "Ġzga": 8279,
      "ĠUniversity": 8280,
      "media": 8281,
      "ĠmiarÄĻ": 8282,
      "Ġnasi": 8283,
      "lidar": 8284,
      "Ha": 8285,
      "ĠskÄħd": 8286,
      "ĠHel": 8287,
      "Ġpri": 8288,
      "kiety": 8289,
      "ĠPoÅĤudniowej": 8290,
      "wicy": 8291,
      "ĠgrupÄĻ": 8292,
      "ĠLos": 8293,
      "ĠSpecja": 8294,
      "ĠStefan": 8295,
      "ĠDzia": 8296,
      "szyb": 8297,
      "ĠIstnie": 8298,
      "ĠliczyÄĩ": 8299,
      "ĠPierwsze": 8300,
      "Ġwydaj": 8301,
      "Ġwpis": 8302,
      "her": 8303,
      "Ġzachodniej": 8304,
      "Ġakces": 8305,
      "Ġutru": 8306,
      "Ġmani": 8307,
      "Ġkatastro": 8308,
      "ĠrÃ³Å¼nego": 8309,
      "ĠUrzÄĻdu": 8310,
      "ĠDlaczego": 8311,
      "pÅĤyw": 8312,
      "Ð´": 8313,
      "Ġserwisie": 8314,
      "Ġwypoczy": 8315,
      "Ġmio": 8316,
      "ĠLou": 8317,
      "Ġczytelni": 8318,
      ":)": 8319,
      "waÅ¼nie": 8320,
      "cieka": 8321,
      "czÄħce": 8322,
      "SK": 8323,
      "ress": 8324,
      "sny": 8325,
      "Ġbr": 8326,
      "kul": 8327,
      "Ġnajwy": 8328,
      "Ġszeroko": 8329,
      "pora": 8330,
      "ĠZbigniew": 8331,
      "Ġbadaw": 8332,
      "Ġdziennie": 8333,
      "ĠwÅĤasny": 8334,
      "niejszÄħ": 8335,
      "kowano": 8336,
      "Ġteore": 8337,
      "Ġrysu": 8338,
      "ÑĮ": 8339,
      "conych": 8340,
      "IV": 8341,
      "Ġstowarzy": 8342,
      "Ġspacer": 8343,
      "mel": 8344,
      "Ġdefini": 8345,
      "ĠtowarÃ³w": 8346,
      "dnicy": 8347,
      "mentami": 8348,
      "ĠFranciszek": 8349,
      "ĠrozporzÄħ": 8350,
      "Ġfu": 8351,
      "ĠMÄĻ": 8352,
      "ĠAlex": 8353,
      "kingu": 8354,
      "ĠpoÅĤoÅ¼ony": 8355,
      "Ġakty": 8356,
      "biny": 8357,
      "ĠcaÅĤoÅĽÄĩ": 8358,
      "Ġmarketing": 8359,
      "Ġnaukowych": 8360,
      "ĠEdward": 8361,
      "Ġznowu": 8362,
      "ĠodsÅĤo": 8363,
      "wiec": 8364,
      "Ġprzygotowy": 8365,
      "ĠwskaÅº": 8366,
      "Zna": 8367,
      "tycznie": 8368,
      "ĠskÃ³r": 8369,
      "sznie": 8370,
      "Ġblu": 8371,
      "Ġrozbudowa": 8372,
      "My": 8373,
      "Ġsmu": 8374,
      "Ġsali": 8375,
      "ĠEko": 8376,
      "Ġogni": 8377,
      "ĠpeÅĤne": 8378,
      "ĠÅĽwiatÅĤo": 8379,
      "Ġanalizy": 8380,
      "ĠZdr": 8381,
      "tha": 8382,
      "Ġarcheo": 8383,
      "Ġobiektu": 8384,
      "nior": 8385,
      "ĠpodwyÅ¼": 8386,
      "ĠkÅĤopo": 8387,
      "Ġmoment": 8388,
      "kowskim": 8389,
      "rzbie": 8390,
      "ĠVol": 8391,
      "ÅĽlÄħ": 8392,
      "bez": 8393,
      "Ġwyspy": 8394,
      "Ġhistoryk": 8395,
      "Ġskompli": 8396,
      "Ġkano": 8397,
      "Ġbakter": 8398,
      "Ġkomputera": 8399,
      "GÅĤÃ³w": 8400,
      "ville": 8401,
      "tet": 8402,
      "ĠÅļlÄħska": 8403,
      "IK": 8404,
      "Ġmoderni": 8405,
      "Ġpatr": 8406,
      "ĠtrudnoÅĽci": 8407,
      "Å¼nych": 8408,
      "ĠdÅºwiÄĻk": 8409,
      "jenia": 8410,
      "ĠwiÄħza": 8411,
      "ĠtrafiÅĤ": 8412,
      "gniÄĻcia": 8413,
      "ĠmnÃ³": 8414,
      "Ġprzetr": 8415,
      "Ġkondy": 8416,
      "Ġhipote": 8417,
      "ĠDavid": 8418,
      "zmem": 8419,
      "Ġhttps": 8420,
      "ÅĤuje": 8421,
      "ĠzagroÅ¼enia": 8422,
      "otel": 8423,
      "miary": 8424,
      "Ġlepsze": 8425,
      "ĠZarzÄħdu": 8426,
      "ĠCzÄĻÅĽÄĩ": 8427,
      "Ġdebiu": 8428,
      "Ġherbu": 8429,
      "zywaÄĩ": 8430,
      "nor": 8431,
      "lei": 8432,
      "ĠksiÄħÅ¼ka": 8433,
      "ĠOstatni": 8434,
      "ĠstworzyÄĩ": 8435,
      "Ġtrwania": 8436,
      "Ġportu": 8437,
      "Ġubieg": 8438,
      "ĠosiÄħgniÄĻcia": 8439,
      "ĠScho": 8440,
      "Ġocho": 8441,
      "Ġgodzinie": 8442,
      "ĠoddziaÅĤ": 8443,
      "ret": 8444,
      "Ġ!": 8445,
      "ĠwrÃ³ci": 8446,
      "Pow": 8447,
      "Ġimieniu": 8448,
      "Ġniczym": 8449,
      "Ġinwest": 8450,
      "ĠSil": 8451,
      "mierz": 8452,
      "ĠwÅĤaÅĽciciela": 8453,
      "lasy": 8454,
      "Ġodde": 8455,
      "Ġgatunki": 8456,
      "jka": 8457,
      "soli": 8458,
      "Ġwalu": 8459,
      "Ġekstra": 8460,
      "ĠGdaÅĦsk": 8461,
      "seudo": 8462,
      "Ġwych": 8463,
      "Ġradio": 8464,
      "wnych": 8465,
      "cs": 8466,
      "Ġaler": 8467,
      "ĠsÅĤowo": 8468,
      "ĠnajwiÄĻksze": 8469,
      "dnikÃ³w": 8470,
      "ĠPaul": 8471,
      "ĠurzÄħdzenie": 8472,
      "ĠszczÄĻÅĽli": 8473,
      "Ġmodele": 8474,
      "tÅĤo": 8475,
      "ĠpowierzchniÄĻ": 8476,
      "ĠzrÃ³Å¼nic": 8477,
      "ĠpÅĤyt": 8478,
      "ĠSty": 8479,
      "Ġwykorzystywane": 8480,
      "ĠmÃ³zgu": 8481,
      "starczy": 8482,
      "IL": 8483,
      "stero": 8484,
      "ĠDÄħb": 8485,
      "Ġmiaste": 8486,
      "Ġtram": 8487,
      "sna": 8488,
      "ĠnastÄĻpuje": 8489,
      "Ġmon": 8490,
      "ĠgÅĤÃ³wne": 8491,
      "gmina": 8492,
      "ĠProwa": 8493,
      "Ġopieki": 8494,
      "ĠRok": 8495,
      "Ġrejestru": 8496,
      "ĠwykoÅĦ": 8497,
      "wskich": 8498,
      "ĠwspÃ³lnego": 8499,
      "ĠwielkÄħ": 8500,
      "Å¼sze": 8501,
      "ĠÅĽrednio": 8502,
      "kr": 8503,
      "Ġnieba": 8504,
      "Ġmistrzostwach": 8505,
      "ĠmaÅĤy": 8506,
      "dowany": 8507,
      "ĠDzieci": 8508,
      "kÅĤ": 8509,
      "ĠpoÅ¼yczki": 8510,
      "dt": 8511,
      "Ġostatnio": 8512,
      "ĠoÅĤ": 8513,
      "ĠBiel": 8514,
      "tonu": 8515,
      "ĠNowej": 8516,
      "Ġwielkim": 8517,
      "ĠWspÃ³l": 8518,
      "ĠPoniewaÅ¼": 8519,
      "ĠprzestrzeÅĦ": 8520,
      "Ġobjawy": 8521,
      "Ġjeziora": 8522,
      "Ġobserw": 8523,
      "Ġmecze": 8524,
      "pon": 8525,
      "Ġpracownika": 8526,
      "Ġabsolu": 8527,
      "ĠrÄħk": 8528,
      "ĠCu": 8529,
      "ĠprzywÃ³d": 8530,
      "ĠðŁĻĤ": 8531,
      "ĠstÄĻ": 8532,
      "Ġadap": 8533,
      "Ġzabi": 8534,
      "ĠOficjalna": 8535,
      "ĠLigi": 8536,
      "Ġgmin": 8537,
      "ĠGÃ³ra": 8538,
      "Ġtelefonu": 8539,
      "ĠwÄĻgla": 8540,
      "ĠwspÃ³ÅĤpracÄĻ": 8541,
      "niak": 8542,
      "ĠPortu": 8543,
      "lonÄħ": 8544,
      "Ġchwil": 8545,
      "ĠcenÄĻ": 8546,
      "Ñĸ": 8547,
      "niÄĻty": 8548,
      "dowi": 8549,
      "CzÄĻ": 8550,
      "Ġwynikiem": 8551,
      "ffi": 8552,
      "ĠXIII": 8553,
      "Ġkoja": 8554,
      "tele": 8555,
      "Ġdekora": 8556,
      "ktorÃ³w": 8557,
      "wziÄĻ": 8558,
      "ĠosobÄĻ": 8559,
      "html": 8560,
      "Ġszer": 8561,
      "Ġpost": 8562,
      "Ġprzedstawicieli": 8563,
      "IM": 8564,
      "ĠPC": 8565,
      "Ġkontr": 8566,
      "Ġswoimi": 8567,
      "ĠÅĽli": 8568,
      "ĠlekÃ³w": 8569,
      "ĠZda": 8570,
      "Ġostatniej": 8571,
      "Ġwreszcie": 8572,
      "Ġinicjatywy": 8573,
      "wÃ³dztwo": 8574,
      "ĠdziesiÄħ": 8575,
      "Ġoczekiwania": 8576,
      "ssi": 8577,
      "ĠartykuÅĤ": 8578,
      "Ġkolorze": 8579,
      "Ġzasob": 8580,
      "Ġwysu": 8581,
      "nieniu": 8582,
      "ĠokolicznoÅĽci": 8583,
      "ĠponiedziaÅĤ": 8584,
      "Lista": 8585,
      "ruje": 8586,
      "Ġsynte": 8587,
      "komo": 8588,
      "Ġstanowisku": 8589,
      "Ġznana": 8590,
      "ĠciÄĻÅ¼ko": 8591,
      "ĠAnge": 8592,
      "ĠstudentÃ³w": 8593,
      "ĠÅºrÃ³dÅĤo": 8594,
      "celar": 8595,
      "grup": 8596,
      "Ġwitami": 8597,
      "Ġgwiaz": 8598,
      "Ry": 8599,
      "ĠtÅĤuszcz": 8600,
      "Ġporu": 8601,
      "ĠPal": 8602,
      "Ġkonstytu": 8603,
      "Ġklien": 8604,
      "ĠgwaÅĤ": 8605,
      "Ġograniczenia": 8606,
      "ĠartykuÅĤÃ³w": 8607,
      "ĠzadebiutowaÅĤ": 8608,
      "ĠAK": 8609,
      "ownictwa": 8610,
      "ĠtoÅ¼sa": 8611,
      "Ġwodo": 8612,
      "Ġwszech": 8613,
      "Ġryb": 8614,
      "ĠwyglÄħ": 8615,
      "Ġadministracji": 8616,
      "Ġzabudowa": 8617,
      "ms": 8618,
      "Ġpowtarza": 8619,
      "ĠdobrÄħ": 8620,
      "ĠrzÄĻdu": 8621,
      "Ġbywa": 8622,
      "Ġdobro": 8623,
      "ĠMeksy": 8624,
      "Ġmniejsze": 8625,
      "Ġeki": 8626,
      "ĠNazwa": 8627,
      "Ġprawnych": 8628,
      "ĠparÄĻ": 8629,
      "ĠproducentÃ³w": 8630,
      "emo": 8631,
      "Ġargu": 8632,
      "Ġpostanowie": 8633,
      "ĠProgram": 8634,
      "Ġmulti": 8635,
      "ĠSmo": 8636,
      "Ġfinansowych": 8637,
      "cher": 8638,
      "ĠTrzeba": 8639,
      "szt": 8640,
      "Ġdoktora": 8641,
      "ĠmyÅĽl": 8642,
      "ĠpozostaÅĤe": 8643,
      "Ġzap": 8644,
      "Ġdiecezji": 8645,
      "berta": 8646,
      "Ġtale": 8647,
      "Ġdawna": 8648,
      "logiÄĻ": 8649,
      "ĠokreÅĽlonych": 8650,
      "polu": 8651,
      "Ġwybuch": 8652,
      "Ġulubio": 8653,
      "ĠOchrony": 8654,
      "tent": 8655,
      "Ġprzeprowadza": 8656,
      "ĠStaro": 8657,
      "ĠInterna": 8658,
      "ide": 8659,
      "ĠBob": 8660,
      "lana": 8661,
      "wii": 8662,
      "Ġcertyfika": 8663,
      "Ġpodsu": 8664,
      "ĠokazjÄĻ": 8665,
      "Ġstatus": 8666,
      "ĠÅ¼adnej": 8667,
      "Ġzatwier": 8668,
      "Ġsmo": 8669,
      "Ġopisu": 8670,
      "ĠwypoÅ¼y": 8671,
      "ĠÅĽwi": 8672,
      "ting": 8673,
      "Ġudo": 8674,
      "Tra": 8675,
      "ĠBlack": 8676,
      "ĠzdolnoÅĽci": 8677,
      "ĠnarzÄĻdzi": 8678,
      "Ġharmo": 8679,
      "ĠSrebr": 8680,
      "Ġjedynym": 8681,
      "wskie": 8682,
      "ĠCzas": 8683,
      "ĠzespoÅĤem": 8684,
      "gatu": 8685,
      "Ġdel": 8686,
      "Ġlinia": 8687,
      "Ġbel": 8688,
      "ĠszansÄĻ": 8689,
      "ĠPodobnie": 8690,
      "Ġpublicy": 8691,
      "ĠKos": 8692,
      "Ġniewiele": 8693,
      "ĠAntoni": 8694,
      "Ġkontrakt": 8695,
      "Ġbaro": 8696,
      "ĠDzieÅĦ": 8697,
      "Ġzapowie": 8698,
      "bii": 8699,
      "Ġdorad": 8700,
      "szonych": 8701,
      "ĠgotÃ³w": 8702,
      "ĠmÃ³wiÄĩ": 8703,
      "ĠJames": 8704,
      "Ġnadaje": 8705,
      "Ġtymczas": 8706,
      "Ġpobytu": 8707,
      "Ġkolejnym": 8708,
      "ĠskÅĤadniki": 8709,
      "Ġcodziennie": 8710,
      "owanÄħ": 8711,
      "mona": 8712,
      "Ġdobrego": 8713,
      "tos": 8714,
      "logie": 8715,
      "Ġwierzy": 8716,
      "ĠsÅĤod": 8717,
      "ĠFundu": 8718,
      "ĠpodjÄħÅĤ": 8719,
      "ĠMistrzostwa": 8720,
      "ndzie": 8721,
      "nomii": 8722,
      "ĠuzupeÅĤnia": 8723,
      "ĠgrÄĻ": 8724,
      "siÄĻwziÄĻ": 8725,
      "ĠMiÅĤo": 8726,
      "Ġrodzaje": 8727,
      "ĠkoÅĽcio": 8728,
      "Ġaro": 8729,
      "ĠchÅĤopa": 8730,
      "ralnej": 8731,
      "WiÄĻcej": 8732,
      "Ġkrem": 8733,
      "szyÅĤa": 8734,
      "Ġprosta": 8735,
      "Ġprosty": 8736,
      "ĠStary": 8737,
      "ĠGli": 8738,
      "ĠSÄħd": 8739,
      "Ġdyscypli": 8740,
      "Ġgranicach": 8741,
      "ĠHenryka": 8742,
      "ĠzgodÄĻ": 8743,
      "Ġama": 8744,
      "ttle": 8745,
      "wielbia": 8746,
      "ĠtytuÅĤem": 8747,
      "Ġtabe": 8748,
      "Ġoficjalnie": 8749,
      "Ġzakres": 8750,
      "ĠpeÅĤnÄħ": 8751,
      "ĠMichael": 8752,
      "ĠtydzieÅĦ": 8753,
      "Ġwaha": 8754,
      "jsce": 8755,
      "ĠWÅĤadysÅĤawa": 8756,
      "Ġprokura": 8757,
      "Ġkim": 8758,
      "ĠDÄĻ": 8759,
      "ĠwyraÅº": 8760,
      "Ġholender": 8761,
      "Jedno": 8762,
      "Ġkultural": 8763,
      "Ġaktuali": 8764,
      "tina": 8765,
      "Ġpotwierdza": 8766,
      "ĠÅĽciany": 8767,
      "Ġkorzyst": 8768,
      "ĠPolitechni": 8769,
      "Szcze": 8770,
      "Ġsystematy": 8771,
      "ĠBlo": 8772,
      "ĠÅĽwiado": 8773,
      "Ġcukru": 8774,
      "gy": 8775,
      "ĠJedy": 8776,
      "psu": 8777,
      "Ġpil": 8778,
      "ĠStan": 8779,
      "ĠkilkanaÅĽcie": 8780,
      "tacje": 8781,
      "tli": 8782,
      "Ġliczy": 8783,
      "habili": 8784,
      "ĠCal": 8785,
      "robo": 8786,
      "ĠkomÃ³rek": 8787,
      "Ġlikwida": 8788,
      "Ġdziennikarz": 8789,
      "Ġzachowanie": 8790,
      "ĠprzeÅĤomie": 8791,
      "ĠAustralii": 8792,
      "Ġalkoholu": 8793,
      "Ġrozgryw": 8794,
      "strali": 8795,
      "Ġpolecam": 8796,
      "ĠmÄħÅ¼": 8797,
      "ĠTwÃ³j": 8798,
      "zor": 8799,
      "Ġkalenda": 8800,
      "ĠwysokÄħ": 8801,
      "ĠKonstytu": 8802,
      "Ġdyspozycji": 8803,
      "ĠEmi": 8804,
      "Ġmuzeum": 8805,
      "Ġwymiany": 8806,
      "Ġskra": 8807,
      "Ġsilnika": 8808,
      "ĠuÅĤatwia": 8809,
      "Ġsal": 8810,
      "Ġhandlu": 8811,
      "Ġoczyszcza": 8812,
      "Ġzamierza": 8813,
      "rost": 8814,
      "ĠPiS": 8815,
      "ĠHal": 8816,
      "unek": 8817,
      "sowaÄĩ": 8818,
      "sco": 8819,
      "ĠOfer": 8820,
      "Ġtrenin": 8821,
      "Ġnerw": 8822,
      "ĠbezpoÅĽre": 8823,
      "ĠwziÄħÅĤ": 8824,
      "ĠPhi": 8825,
      "Ġzapewne": 8826,
      "ĠSzwecji": 8827,
      "Ġwyrzu": 8828,
      "Du": 8829,
      "cial": 8830,
      "ĠLove": 8831,
      "Ġfoto": 8832,
      "ĠAustrii": 8833,
      "ĠObywa": 8834,
      "ĠMichaÅĤa": 8835,
      "Jo": 8836,
      "Ġwor": 8837,
      "%,": 8838,
      "Ġumieszcza": 8839,
      "iÄĻkujÄĻ": 8840,
      "Ġfinansowe": 8841,
      "âĢĿ).": 8842,
      "growa": 8843,
      "ĠumÃ³w": 8844,
      "Ġskupia": 8845,
      "Ġdora": 8846,
      "Ġzamek": 8847,
      "Ġspecjalnych": 8848,
      "ĠÅĽciÄħ": 8849,
      "Ġpacjenta": 8850,
      "ĠKto": 8851,
      "Ġzadaniem": 8852,
      "Ġministra": 8853,
      "strzyma": 8854,
      "Ġsesji": 8855,
      "ĠNowego": 8856,
      "Ġalternatyw": 8857,
      "Ġkompeten": 8858,
      "ĠpojawiÅĤy": 8859,
      "ĠKrajowej": 8860,
      "Ġnatury": 8861,
      "IP": 8862,
      "twory": 8863,
      "Ġzdra": 8864,
      "Ġawar": 8865,
      "ĠWysp": 8866,
      "ĠmajÄħtku": 8867,
      "Wita": 8868,
      "Ð¼": 8869,
      "Ġemail": 8870,
      "Ġchcieli": 8871,
      "Ġedukacji": 8872,
      "ĠOpen": 8873,
      "Ġobiekt": 8874,
      "Ġtrudne": 8875,
      "ĠrÄĻko": 8876,
      "ĠTrzy": 8877,
      "ĠPÅĤo": 8878,
      "Ġopinie": 8879,
      "ĠkaÅ¼de": 8880,
      "ĠHit": 8881,
      "Ġbrata": 8882,
      "Ġwita": 8883,
      "Ġmetod": 8884,
      "vin": 8885,
      "tno": 8886,
      "Ġzegar": 8887,
      "Ġprag": 8888,
      "Ġtrafia": 8889,
      "unki": 8890,
      "Ġprowadzone": 8891,
      "hn": 8892,
      "Ġlokalnych": 8893,
      "ĠwystÄĻpowaÅĤ": 8894,
      "=\"": 8895,
      "Ġhotelu": 8896,
      "Ġustanowi": 8897,
      "zujemy": 8898,
      "san": 8899,
      "sfa": 8900,
      "Ġwyprze": 8901,
      "gio": 8902,
      "Ġpowszechnie": 8903,
      "Ġniko": 8904,
      "Ġpliki": 8905,
      "Ð¹": 8906,
      "ire": 8907,
      "ĠNar": 8908,
      "Ġpane": 8909,
      "ĠIgna": 8910,
      "Ġform": 8911,
      "ĠsamÄħ": 8912,
      "lary": 8913,
      "ĠVIII": 8914,
      "Ġodcinek": 8915,
      "ĠPort": 8916,
      "bara": 8917,
      "ĠosiÄħgnÄħÄĩ": 8918,
      "ĠBli": 8919,
      "ĠJeszcze": 8920,
      "Ġmro": 8921,
      "Ġzakon": 8922,
      "strzem": 8923,
      "ĠdowÃ³dcy": 8924,
      "Ġdokumenty": 8925,
      "Ġhab": 8926,
      "Ġzaproponowa": 8927,
      "ury": 8928,
      "ĠMamy": 8929,
      "mierza": 8930,
      "ĠGwia": 8931,
      "WieÅĽ": 8932,
      "ĠsÅĤuÅ¼b": 8933,
      "Ġfunkcjonowania": 8934,
      "ĠksztaÅĤcie": 8935,
      "Ġrezy": 8936,
      "ĠsieÄĩ": 8937,
      "ĠAf": 8938,
      "ĠPom": 8939,
      "taria": 8940,
      "Op": 8941,
      "Zabytki": 8942,
      "ĠWito": 8943,
      "Wszystkie": 8944,
      "Ġwiemy": 8945,
      "Â§": 8946,
      "Ġprzeszko": 8947,
      "ĠwyjÄħtkiem": 8948,
      "ĠâĢ¦": 8949,
      "Ġmistrza": 8950,
      "Ġobozu": 8951,
      "Ġuniwersa": 8952,
      "sÅĤÃ³w": 8953,
      "Ġcztero": 8954,
      "ĠÄĩwiczenia": 8955,
      "ĠTrÃ³j": 8956,
      "styki": 8957,
      "Ġwywal": 8958,
      "ĠIX": 8959,
      "ĠsytuacjÄĻ": 8960,
      "Ġzwolen": 8961,
      "Ġdzieli": 8962,
      "Informa": 8963,
      "Ġnazwisko": 8964,
      "Zapraszamy": 8965,
      "ĠwÃ³z": 8966,
      "chami": 8967,
      "TV": 8968,
      "hip": 8969,
      "Ġangielski": 8970,
      "ĠsÅĤabo": 8971,
      "ĠSco": 8972,
      "Ġprzeznaczone": 8973,
      "owskie": 8974,
      "Ġrano": 8975,
      "kse": 8976,
      "ĠRock": 8977,
      "ĠâĢ¢": 8978,
      "ĠJednoczeÅĽnie": 8979,
      "ĠDis": 8980,
      "ĠzamÃ³w": 8981,
      "ĠoddziaÅĤu": 8982,
      "ĠTechni": 8983,
      "Ġfran": 8984,
      "Ġdrzewa": 8985,
      "ĠZale": 8986,
      "dru": 8987,
      "Jako": 8988,
      "ĠwiÄħÅ¼e": 8989,
      "ĠLy": 8990,
      "Ġsposobem": 8991,
      "ĠBydgoszczy": 8992,
      "rzyÅĽci": 8993,
      "ĠkÄħpie": 8994,
      "stanty": 8995,
      "Ġeuropejskich": 8996,
      "serwu": 8997,
      "Ġpowietrze": 8998,
      "Ġzapis": 8999,
      "ĠTego": 9000,
      "Ġnawil": 9001,
      "ĠniepodlegÅĤoÅĽci": 9002,
      "PoczÄħ": 9003,
      "ĠwydÅĤu": 9004,
      "Ġelimina": 9005,
      "sier": 9006,
      "Ġsmart": 9007,
      "ĠdaÄĩ": 9008,
      "Ġuczniowie": 9009,
      "Ġpoci": 9010,
      "Ġjeli": 9011,
      "ĠczynnikÃ³w": 9012,
      "landia": 9013,
      "Ġprzestrzega": 9014,
      "Par": 9015,
      "ĠÅĽwiÄĻto": 9016,
      "ĠMoÅ¼esz": 9017,
      "Ġregularnie": 9018,
      "Ã§": 9019,
      "ĠzagraÅĤ": 9020,
      "ĠPolacy": 9021,
      "ĠFrie": 9022,
      "ĠmiesiÄħca": 9023,
      "Ġzag": 9024,
      "ĠAposto": 9025,
      "ĠchcÄĻ": 9026,
      "nionego": 9027,
      "Obie": 9028,
      "Ġnadmier": 9029,
      "ĠinÅ¼ynier": 9030,
      "ĠmÃ³wiÄħc": 9031,
      "ĠFlo": 9032,
      "Å¼ach": 9033,
      "ĠurzÄħd": 9034,
      "Ġperso": 9035,
      "ĠGlo": 9036,
      "Ġnauczycieli": 9037,
      "Uwagi": 9038,
      "gowa": 9039,
      "ĠLudowej": 9040,
      "Ġsiatka": 9041,
      "Ġdwudzie": 9042,
      "Ġgr": 9043,
      "ĠksiÄħÅ¼ce": 9044,
      "tarzal": 9045,
      "Ġzmianie": 9046,
      "Ġprobo": 9047,
      "Ġwschodniej": 9048,
      "ik": 9049,
      "Ġgrubo": 9050,
      "Ġryzyka": 9051,
      "ĠIP": 9052,
      "ĠobecnoÅĽci": 9053,
      "ĠÅĤaÅĦcu": 9054,
      "Ġfinale": 9055,
      "Ġmus": 9056,
      "ĠprawosÅĤaw": 9057,
      "Ġkanady": 9058,
      "bre": 9059,
      "ĠHistory": 9060,
      "ĠprzygotowaÄĩ": 9061,
      "lizmu": 9062,
      "ĠzmianÄĻ": 9063,
      "ĠPS": 9064,
      "ĠÅ»a": 9065,
      "Ġobszaru": 9066,
      "ĠPolskÄĻ": 9067,
      "anu": 9068,
      "Ġtelewizji": 9069,
      "ziono": 9070,
      "Obecnie": 9071,
      "Ġzrozumie": 9072,
      "ĠodwoÅĤa": 9073,
      "ĠchoÄĩby": 9074,
      "ĠGrupa": 9075,
      "wacji": 9076,
      "Lau": 9077,
      "Ã³wka": 9078,
      "czÄħcych": 9079,
      "ĠMaÅĤo": 9080,
      "Å¼ny": 9081,
      "zujÄħce": 9082,
      "ĠupamiÄĻ": 9083,
      "ĠMen": 9084,
      "biÄĻ": 9085,
      "WspÃ³ÅĤ": 9086,
      "ĠÅĤadu": 9087,
      "Ġswe": 9088,
      "ĠfinaÅĤ": 9089,
      "ĠUkrainy": 9090,
      "stein": 9091,
      "phy": 9092,
      "jnÄħ": 9093,
      "nili": 9094,
      "ĠumowÄĻ": 9095,
      "Kom": 9096,
      "bek": 9097,
      "Ġpokazuje": 9098,
      "Ġpopro": 9099,
      "Ġcom": 9100,
      "jako": 9101,
      "gowej": 9102,
      "ĠKM": 9103,
      "Ten": 9104,
      "tÅĤuma": 9105,
      "Ġgrun": 9106,
      "Ġskoro": 9107,
      "Ġdopuszcza": 9108,
      "ĠNowe": 9109,
      "Ġleczni": 9110,
      "ĠZespo": 9111,
      "ĠpracowaÄĩ": 9112,
      "Ġmoto": 9113,
      "ĠproszÄĻ": 9114,
      "ĠBoÅ¼ego": 9115,
      "ĠChoÄĩ": 9116,
      "ĠwypeÅĤnia": 9117,
      "Ġdanym": 9118,
      "ĠwzÃ³r": 9119,
      "ĠdostÄĻpna": 9120,
      "dziesiÄħt": 9121,
      "nat": 9122,
      "Ġgle": 9123,
      "ĠosÅĤa": 9124,
      "ĠHand": 9125,
      "ĠIgrzysk": 9126,
      "nionym": 9127,
      "Ġneo": 9128,
      "CD": 9129,
      "Ġpana": 9130,
      "ĠSejmu": 9131,
      "szczona": 9132,
      "ĠgranicÄħ": 9133,
      "Cze": 9134,
      "turÄħ": 9135,
      "Ġosiedla": 9136,
      "gda": 9137,
      "ĠRada": 9138,
      "ĠProjekt": 9139,
      "bile": 9140,
      "Ġodpowiednich": 9141,
      "ux": 9142,
      "ĠtaÅĦ": 9143,
      "ĠwiÄĻksza": 9144,
      "Ġmalarz": 9145,
      "ĠproÅĽ": 9146,
      "gdzie": 9147,
      "sowej": 9148,
      "oku": 9149,
      "Ġaktorzy": 9150,
      "ĠosobÄħ": 9151,
      "Ġsprawach": 9152,
      "niÅ¼ej": 9153,
      "ĠprzedsiÄĻwziÄĻ": 9154,
      "Ġstosowanie": 9155,
      "zmy": 9156,
      "Ġformu": 9157,
      "ĠTVP": 9158,
      "jami": 9159,
      "ĠodpowiedÅº": 9160,
      "Reprezen": 9161,
      "Ġbrakuje": 9162,
      "ĠZwiÄħzek": 9163,
      "ĠmnÃ³stwo": 9164,
      "ĠZim": 9165,
      "Ġterytoria": 9166,
      "biegu": 9167,
      "Ġokazuje": 9168,
      "ĠnajwiÄĻkszym": 9169,
      "sycho": 9170,
      "ĠEgip": 9171,
      "lica": 9172,
      "Ġplus": 9173,
      "ĠJean": 9174,
      "Ġpolitycznych": 9175,
      "Ġziemia": 9176,
      "ĠzespoÅĤÃ³w": 9177,
      "Ġqu": 9178,
      "ĠSztuki": 9179,
      "niejszego": 9180,
      "stÄħpio": 9181,
      "ĠzdoÅĤa": 9182,
      "ĠSpi": 9183,
      "Ġgnia": 9184,
      "ĠspoÅĤeczne": 9185,
      "ĠMazowie": 9186,
      "Ġgospoda": 9187,
      "Ġpsa": 9188,
      "Ġpobu": 9189,
      "wum": 9190,
      "ĠpoglÄħ": 9191,
      "ĠKen": 9192,
      "ĠWest": 9193,
      "ĠfaÅĤ": 9194,
      "Ġwalk": 9195,
      "Ġ;)": 9196,
      "ĠgÅĤu": 9197,
      "ĠDziÅĽ": 9198,
      "niowej": 9199,
      "ÅĤom": 9200,
      "ĠVal": 9201,
      "likwi": 9202,
      "Ġlewej": 9203,
      "Ġdodaje": 9204,
      "Ġskarb": 9205,
      "ĠdruÅ¼yn": 9206,
      "dora": 9207,
      "ugh": 9208,
      "Ġatmosfery": 9209,
      "Ġpodaje": 9210,
      "tycznym": 9211,
      "woju": 9212,
      "ĠpiÄĻkne": 9213,
      "Ġwicepre": 9214,
      "Ġplanu": 9215,
      "ĠgÅĤÃ³wnÄħ": 9216,
      "ĠuÅ¼ytkowania": 9217,
      "ĠrzÄĻ": 9218,
      "Ġsuger": 9219,
      "Ġgospodarczej": 9220,
      "ĠwÅĤadzÄĻ": 9221,
      "ĠdzieÄĩmi": 9222,
      "siad": 9223,
      "Ġaran": 9224,
      "ĠDre": 9225,
      "Pola": 9226,
      "Ġofiar": 9227,
      "ĠksiÄħÅ¼kÄĻ": 9228,
      "Ġwodzie": 9229,
      "Ġniemieckie": 9230,
      "ĠmÄĻÅ¼czyzna": 9231,
      "Ġpozyska": 9232,
      "Ġsposobu": 9233,
      "ĠParku": 9234,
      "ĠÂ»": 9235,
      "Bardzo": 9236,
[...]
